genomestart 1

/* trait : id, params (x8 = NEAT::num_trait_params) */
/* A trait is a reference that can be used by nodes as a common resource. */
trait 1 0.1 0 0 0 0 0 0 0
trait 2 0 0.1 0 0 0 0 0 0
trait 3 0 0 0.1 0 0 0 0 0
trait 4 0 0 0 0.1 0 0 0 0
trait 5 0 0 0 0 0.1 0 0 0
trait 6 0 0 0 0 0 0 0.1 0
trait 7 0 0 0 0 0 0 0 0.1
trait 8 0 0 0 0 0 0 0 0.1
trait 9 0 0 0 0 0 0 0 0.1
trait 10 0 0 0 0 0 0 0 0.1


/* node : id, trait, type, label(place), ??? */
/* (see nnode.h) */
/* nodetype {		NEURON = 0,		SENSOR = 1 */

/* nodeplace {HIDDEN = 0,INPUT = 1, OUTPUT = 2, BIAS = 3 */

/* functype {SIGMOID = 0 */

/* gene : traitnum, input_nodenum, output_nodenum, weight, recur, innovation_num, mutation_num, enable */

node 1 0 1 3 1
node 2 0 0 0 0
node 3 0 1 1 1
gene 1 3 2 0.0 0 1 0 1
node 4 0 1 1 1
gene 1 4 2 0.0 0 1 0 1
node 5 0 1 1 1
gene 1 5 2 0.0 0 1 0 1
node 6 0 1 1 1
gene 1 6 2 0.0 0 1 0 1
node 7 0 1 1 1
gene 1 7 2 0.0 0 1 0 1
node 8 0 1 1 1
gene 1 8 2 0.0 0 1 0 1
node 9 0 1 1 1
gene 1 9 2 0.0 0 1 0 1
node 10 0 1 1 1
gene 1 10 2 0.0 0 1 0 1
node 11 0 1 1 1
gene 1 11 2 0.0 0 1 0 1
node 12 0 1 1 1
gene 1 12 2 0.0 0 1 0 1
node 13 0 1 1 1
gene 1 13 2 0.0 0 1 0 1
node 14 0 1 1 1
gene 1 14 2 0.0 0 1 0 1
node 15 0 1 1 1
gene 1 15 2 0.0 0 1 0 1
node 16 0 1 1 1
gene 1 16 2 0.0 0 1 0 1
node 17 0 1 1 1
gene 1 17 2 0.0 0 1 0 1
node 18 0 1 1 1
gene 1 18 2 0.0 0 1 0 1
node 19 0 1 1 1
gene 1 19 2 0.0 0 1 0 1
node 20 0 1 1 1
gene 1 20 2 0.0 0 1 0 1
node 21 0 1 1 1
gene 1 21 2 0.0 0 1 0 1
node 22 0 1 1 1
gene 1 22 2 0.0 0 1 0 1
node 23 0 1 1 1
gene 1 23 2 0.0 0 1 0 1
node 24 0 1 1 1
gene 1 24 2 0.0 0 1 0 1
node 25 0 1 1 1
gene 1 25 2 0.0 0 1 0 1
node 26 0 1 1 1
gene 1 26 2 0.0 0 1 0 1
node 27 0 1 1 1
gene 1 27 2 0.0 0 1 0 1
node 28 0 1 1 1
gene 1 28 2 0.0 0 1 0 1
node 29 0 1 1 1
gene 1 29 2 0.0 0 1 0 1
node 30 0 1 1 1
gene 1 30 2 0.0 0 1 0 1
node 31 0 1 1 1
gene 1 31 2 0.0 0 1 0 1
node 32 0 1 1 1
gene 1 32 2 0.0 0 1 0 1
node 33 0 1 1 1
gene 1 33 2 0.0 0 1 0 1
node 34 0 1 1 1
gene 1 34 2 0.0 0 1 0 1
node 35 0 1 1 1
gene 1 35 2 0.0 0 1 0 1
node 36 0 1 1 1
gene 1 36 2 0.0 0 1 0 1
node 37 0 1 1 1
gene 1 37 2 0.0 0 1 0 1
node 38 0 1 1 1
gene 1 38 2 0.0 0 1 0 1
node 39 0 1 1 1
gene 1 39 2 0.0 0 1 0 1
node 40 0 1 1 1
gene 1 40 2 0.0 0 1 0 1
node 41 0 1 1 1
gene 1 41 2 0.0 0 1 0 1
node 42 0 1 1 1
gene 1 42 2 0.0 0 1 0 1
node 43 0 1 1 1
gene 1 43 2 0.0 0 1 0 1
node 44 0 1 1 1
gene 1 44 2 0.0 0 1 0 1
node 45 0 1 1 1
gene 1 45 2 0.0 0 1 0 1
node 46 0 1 1 1
gene 1 46 2 0.0 0 1 0 1
node 47 0 1 1 1
gene 1 47 2 0.0 0 1 0 1
node 48 0 1 1 1
gene 1 48 2 0.0 0 1 0 1
node 49 0 1 1 1
gene 1 49 2 0.0 0 1 0 1
node 50 0 1 1 1
gene 1 50 2 0.0 0 1 0 1
node 51 0 1 1 1
gene 1 51 2 0.0 0 1 0 1
node 52 0 1 1 1
gene 1 52 2 0.0 0 1 0 1
node 53 0 1 1 1
gene 1 53 2 0.0 0 1 0 1
node 54 0 1 1 1
gene 1 54 2 0.0 0 1 0 1
node 55 0 1 1 1
gene 1 55 2 0.0 0 1 0 1
node 56 0 1 1 1
gene 1 56 2 0.0 0 1 0 1
node 57 0 1 1 1
gene 1 57 2 0.0 0 1 0 1
node 58 0 1 1 1
gene 1 58 2 0.0 0 1 0 1
node 59 0 1 1 1
gene 1 59 2 0.0 0 1 0 1
node 60 0 1 1 1
gene 1 60 2 0.0 0 1 0 1
node 61 0 1 1 1
gene 1 61 2 0.0 0 1 0 1
node 62 0 1 1 1
gene 1 62 2 0.0 0 1 0 1
node 63 0 1 1 1
gene 1 63 2 0.0 0 1 0 1
node 64 0 1 1 1
gene 1 64 2 0.0 0 1 0 1
node 65 0 1 1 1
gene 1 65 2 0.0 0 1 0 1
node 66 0 1 1 1
gene 1 66 2 0.0 0 1 0 1
node 67 0 1 1 1
gene 1 67 2 0.0 0 1 0 1
node 68 0 1 1 1
gene 1 68 2 0.0 0 1 0 1
node 69 0 1 1 1
gene 1 69 2 0.0 0 1 0 1
node 70 0 1 1 1
gene 1 70 2 0.0 0 1 0 1
node 71 0 1 1 1
gene 1 71 2 0.0 0 1 0 1
node 72 0 1 1 1
gene 1 72 2 0.0 0 1 0 1
node 73 0 1 1 1
gene 1 73 2 0.0 0 1 0 1
node 74 0 1 1 1
gene 1 74 2 0.0 0 1 0 1
node 75 0 1 1 1
gene 1 75 2 0.0 0 1 0 1
node 76 0 1 1 1
gene 1 76 2 0.0 0 1 0 1
node 77 0 1 1 1
gene 1 77 2 0.0 0 1 0 1
node 78 0 1 1 1
gene 1 78 2 0.0 0 1 0 1
node 79 0 1 1 1
gene 1 79 2 0.0 0 1 0 1
node 80 0 1 1 1
gene 1 80 2 0.0 0 1 0 1
node 81 0 1 1 1
gene 1 81 2 0.0 0 1 0 1
node 82 0 1 1 1
gene 1 82 2 0.0 0 1 0 1
node 83 0 1 1 1
gene 1 83 2 0.0 0 1 0 1
node 84 0 1 1 1
gene 1 84 2 0.0 0 1 0 1
node 85 0 1 1 1
gene 1 85 2 0.0 0 1 0 1
node 86 0 1 1 1
gene 1 86 2 0.0 0 1 0 1
node 87 0 1 1 1
gene 1 87 2 0.0 0 1 0 1
node 88 0 1 1 1
gene 1 88 2 0.0 0 1 0 1
node 89 0 1 1 1
gene 1 89 2 0.0 0 1 0 1
node 90 0 1 1 1
gene 1 90 2 0.0 0 1 0 1
node 91 0 1 1 1
gene 1 91 2 0.0 0 1 0 1
node 92 0 1 1 1
gene 1 92 2 0.0 0 1 0 1
node 93 0 1 1 1
gene 1 93 2 0.0 0 1 0 1
node 94 0 1 1 1
gene 1 94 2 0.0 0 1 0 1
node 95 0 1 1 1
gene 1 95 2 0.0 0 1 0 1
node 96 0 1 1 1
gene 1 96 2 0.0 0 1 0 1
node 97 0 1 1 1
gene 1 97 2 0.0 0 1 0 1
node 98 0 1 1 1
gene 1 98 2 0.0 0 1 0 1
node 99 0 1 1 1
gene 1 99 2 0.0 0 1 0 1
node 100 0 1 1 1
gene 1 100 2 0.0 0 1 0 1
node 101 0 1 1 1
gene 1 101 2 0.0 0 1 0 1
node 102 0 1 1 1
gene 1 102 2 0.0 0 1 0 1
node 103 0 1 1 1
gene 1 103 2 0.0 0 1 0 1
node 104 0 1 1 1
gene 1 104 2 0.0 0 1 0 1
node 105 0 1 1 1
gene 1 105 2 0.0 0 1 0 1
node 106 0 1 1 1
gene 1 106 2 0.0 0 1 0 1
node 107 0 1 1 1
gene 1 107 2 0.0 0 1 0 1
node 108 0 1 1 1
gene 1 108 2 0.0 0 1 0 1
node 109 0 1 1 1
gene 1 109 2 0.0 0 1 0 1
node 110 0 1 1 1
gene 1 110 2 0.0 0 1 0 1
node 111 0 1 1 1
gene 1 111 2 0.0 0 1 0 1
node 112 0 1 1 1
gene 1 112 2 0.0 0 1 0 1
node 113 0 1 1 1
gene 1 113 2 0.0 0 1 0 1
node 114 0 1 1 1
gene 1 114 2 0.0 0 1 0 1
node 115 0 1 1 1
gene 1 115 2 0.0 0 1 0 1
node 116 0 1 1 1
gene 1 116 2 0.0 0 1 0 1
node 117 0 1 1 1
gene 1 117 2 0.0 0 1 0 1
node 118 0 1 1 1
gene 1 118 2 0.0 0 1 0 1
node 119 0 1 1 1
gene 1 119 2 0.0 0 1 0 1
node 120 0 1 1 1
gene 1 120 2 0.0 0 1 0 1
node 121 0 1 1 1
gene 1 121 2 0.0 0 1 0 1
node 122 0 1 1 1
gene 1 122 2 0.0 0 1 0 1
node 123 0 1 1 1
gene 1 123 2 0.0 0 1 0 1
node 124 0 1 1 1
gene 1 124 2 0.0 0 1 0 1
node 125 0 1 1 1
gene 1 125 2 0.0 0 1 0 1
node 126 0 1 1 1
gene 1 126 2 0.0 0 1 0 1
node 127 0 1 1 1
gene 1 127 2 0.0 0 1 0 1
node 128 0 1 1 1
gene 1 128 2 0.0 0 1 0 1
node 129 0 1 1 1
gene 1 129 2 0.0 0 1 0 1
node 130 0 1 1 1
gene 1 130 2 0.0 0 1 0 1
node 131 0 1 1 1
gene 1 131 2 0.0 0 1 0 1
node 132 0 1 1 1
gene 1 132 2 0.0 0 1 0 1
node 133 0 1 1 1
gene 1 133 2 0.0 0 1 0 1
node 134 0 1 1 1
gene 1 134 2 0.0 0 1 0 1
node 135 0 1 1 1
gene 1 135 2 0.0 0 1 0 1
node 136 0 1 1 1
gene 1 136 2 0.0 0 1 0 1
node 137 0 1 1 1
gene 1 137 2 0.0 0 1 0 1
node 138 0 1 1 1
gene 1 138 2 0.0 0 1 0 1
node 139 0 1 1 1
gene 1 139 2 0.0 0 1 0 1
node 140 0 1 1 1
gene 1 140 2 0.0 0 1 0 1
node 141 0 1 1 1
gene 1 141 2 0.0 0 1 0 1
node 142 0 1 1 1
gene 1 142 2 0.0 0 1 0 1
node 143 0 1 1 1
gene 1 143 2 0.0 0 1 0 1
node 144 0 1 1 1
gene 1 144 2 0.0 0 1 0 1
node 145 0 1 1 1
gene 1 145 2 0.0 0 1 0 1
node 146 0 1 1 1
gene 1 146 2 0.0 0 1 0 1
node 147 0 1 1 1
gene 1 147 2 0.0 0 1 0 1
node 148 0 1 1 1
gene 1 148 2 0.0 0 1 0 1
node 149 0 1 1 1
gene 1 149 2 0.0 0 1 0 1
node 150 0 1 1 1
gene 1 150 2 0.0 0 1 0 1
node 151 0 1 1 1
gene 1 151 2 0.0 0 1 0 1
node 152 0 1 1 1
gene 1 152 2 0.0 0 1 0 1
node 153 0 1 1 1
gene 1 153 2 0.0 0 1 0 1
node 154 0 1 1 1
gene 1 154 2 0.0 0 1 0 1
node 155 0 1 1 1
gene 1 155 2 0.0 0 1 0 1
node 156 0 1 1 1
gene 1 156 2 0.0 0 1 0 1
node 157 0 1 1 1
gene 1 157 2 0.0 0 1 0 1
node 158 0 1 1 1
gene 1 158 2 0.0 0 1 0 1
node 159 0 1 1 1
gene 1 159 2 0.0 0 1 0 1
node 160 0 1 1 1
gene 1 160 2 0.0 0 1 0 1
node 161 0 1 1 1
gene 1 161 2 0.0 0 1 0 1
node 162 0 1 1 1
gene 1 162 2 0.0 0 1 0 1
node 163 0 1 1 1
gene 1 163 2 0.0 0 1 0 1
node 164 0 1 1 1
gene 1 164 2 0.0 0 1 0 1
node 165 0 1 1 1
gene 1 165 2 0.0 0 1 0 1
node 166 0 1 1 1
gene 1 166 2 0.0 0 1 0 1
node 167 0 1 1 1
gene 1 167 2 0.0 0 1 0 1
node 168 0 1 1 1
gene 1 168 2 0.0 0 1 0 1
node 169 0 1 1 1
gene 1 169 2 0.0 0 1 0 1
node 170 0 1 1 1
gene 1 170 2 0.0 0 1 0 1
node 171 0 1 1 1
gene 1 171 2 0.0 0 1 0 1
node 172 0 1 1 1
gene 1 172 2 0.0 0 1 0 1
node 173 0 1 1 1
gene 1 173 2 0.0 0 1 0 1
node 174 0 1 1 1
gene 1 174 2 0.0 0 1 0 1
node 175 0 1 1 1
gene 1 175 2 0.0 0 1 0 1
node 176 0 1 1 1
gene 1 176 2 0.0 0 1 0 1
node 177 0 1 1 1
gene 1 177 2 0.0 0 1 0 1
node 178 0 1 1 1
gene 1 178 2 0.0 0 1 0 1
node 179 0 1 1 1
gene 1 179 2 0.0 0 1 0 1
node 180 0 1 1 1
gene 1 180 2 0.0 0 1 0 1
node 181 0 1 1 1
gene 1 181 2 0.0 0 1 0 1
node 182 0 1 1 1
gene 1 182 2 0.0 0 1 0 1
node 183 0 1 1 1
gene 1 183 2 0.0 0 1 0 1
node 184 0 1 1 1
gene 1 184 2 0.0 0 1 0 1
node 185 0 1 1 1
gene 1 185 2 0.0 0 1 0 1
node 186 0 1 1 1
gene 1 186 2 0.0 0 1 0 1
node 187 0 1 1 1
gene 1 187 2 0.0 0 1 0 1
node 188 0 1 1 1
gene 1 188 2 0.0 0 1 0 1
node 189 0 1 1 1
gene 1 189 2 0.0 0 1 0 1
node 190 0 1 1 1
gene 1 190 2 0.0 0 1 0 1
node 191 0 1 1 1
gene 1 191 2 0.0 0 1 0 1
node 192 0 1 1 1
gene 1 192 2 0.0 0 1 0 1
node 193 0 1 1 1
gene 1 193 2 0.0 0 1 0 1
node 194 0 1 1 1
gene 1 194 2 0.0 0 1 0 1
node 195 0 1 1 1
gene 1 195 2 0.0 0 1 0 1
node 196 0 1 1 1
gene 1 196 2 0.0 0 1 0 1
node 197 0 1 1 1
gene 1 197 2 0.0 0 1 0 1
node 198 0 1 1 1
gene 1 198 2 0.0 0 1 0 1
node 199 0 1 1 1
gene 1 199 2 0.0 0 1 0 1
node 200 0 1 1 1
gene 1 200 2 0.0 0 1 0 1
node 201 0 1 1 1
gene 1 201 2 0.0 0 1 0 1
node 202 0 1 1 1
gene 1 202 2 0.0 0 1 0 1
node 203 0 1 1 1
gene 1 203 2 0.0 0 1 0 1
node 204 0 1 1 1
gene 1 204 2 0.0 0 1 0 1
node 205 0 1 1 1
gene 1 205 2 0.0 0 1 0 1
node 206 0 1 1 1
gene 1 206 2 0.0 0 1 0 1
node 207 0 1 1 1
gene 1 207 2 0.0 0 1 0 1
node 208 0 1 1 1
gene 1 208 2 0.0 0 1 0 1
node 209 0 1 1 1
gene 1 209 2 0.0 0 1 0 1
node 210 0 1 1 1
gene 1 210 2 0.0 0 1 0 1
node 211 0 1 1 1
gene 1 211 2 0.0 0 1 0 1
node 212 0 1 1 1
gene 1 212 2 0.0 0 1 0 1
node 213 0 1 1 1
gene 1 213 2 0.0 0 1 0 1
node 214 0 1 1 1
gene 1 214 2 0.0 0 1 0 1
node 215 0 1 1 1
gene 1 215 2 0.0 0 1 0 1
node 216 0 1 1 1
gene 1 216 2 0.0 0 1 0 1
node 217 0 1 1 1
gene 1 217 2 0.0 0 1 0 1
node 218 0 1 1 1
gene 1 218 2 0.0 0 1 0 1
node 219 0 1 1 1
gene 1 219 2 0.0 0 1 0 1
node 220 0 1 1 1
gene 1 220 2 0.0 0 1 0 1
node 221 0 1 1 1
gene 1 221 2 0.0 0 1 0 1
node 222 0 1 1 1
gene 1 222 2 0.0 0 1 0 1
node 223 0 1 1 1
gene 1 223 2 0.0 0 1 0 1
node 224 0 1 1 1
gene 1 224 2 0.0 0 1 0 1
node 225 0 1 1 1
gene 1 225 2 0.0 0 1 0 1
node 226 0 1 1 1
gene 1 226 2 0.0 0 1 0 1
node 227 0 1 1 1
gene 1 227 2 0.0 0 1 0 1
node 228 0 1 1 1
gene 1 228 2 0.0 0 1 0 1
node 229 0 1 1 1
gene 1 229 2 0.0 0 1 0 1
node 230 0 1 1 1
gene 1 230 2 0.0 0 1 0 1
node 231 0 1 1 1
gene 1 231 2 0.0 0 1 0 1
node 232 0 1 1 1
gene 1 232 2 0.0 0 1 0 1
node 233 0 1 1 1
gene 1 233 2 0.0 0 1 0 1
node 234 0 1 1 1
gene 1 234 2 0.0 0 1 0 1
node 235 0 1 1 1
gene 1 235 2 0.0 0 1 0 1
node 236 0 1 1 1
gene 1 236 2 0.0 0 1 0 1
node 237 0 1 1 1
gene 1 237 2 0.0 0 1 0 1
node 238 0 1 1 1
gene 1 238 2 0.0 0 1 0 1
node 239 0 1 1 1
gene 1 239 2 0.0 0 1 0 1
node 240 0 1 1 1
gene 1 240 2 0.0 0 1 0 1
node 241 0 1 1 1
gene 1 241 2 0.0 0 1 0 1
node 242 0 1 1 1
gene 1 242 2 0.0 0 1 0 1
node 243 0 1 1 1
gene 1 243 2 0.0 0 1 0 1
node 244 0 1 1 1
gene 1 244 2 0.0 0 1 0 1
node 245 0 1 1 1
gene 1 245 2 0.0 0 1 0 1
node 246 0 1 1 1
gene 1 246 2 0.0 0 1 0 1
node 247 0 1 1 1
gene 1 247 2 0.0 0 1 0 1
node 248 0 1 1 1
gene 1 248 2 0.0 0 1 0 1
node 249 0 1 1 1
gene 1 249 2 0.0 0 1 0 1
node 250 0 1 1 1
gene 1 250 2 0.0 0 1 0 1
node 251 0 1 1 1
gene 1 251 2 0.0 0 1 0 1
node 252 0 1 1 1
gene 1 252 2 0.0 0 1 0 1
node 253 0 1 1 1
gene 1 253 2 0.0 0 1 0 1
node 254 0 1 1 1
gene 1 254 2 0.0 0 1 0 1
node 255 0 1 1 1
gene 1 255 2 0.0 0 1 0 1
node 256 0 1 1 1
gene 1 256 2 0.0 0 1 0 1
node 257 0 1 1 1
gene 1 257 2 0.0 0 1 0 1
node 258 0 1 1 1
gene 1 258 2 0.0 0 1 0 1
node 259 0 1 1 1
gene 1 259 2 0.0 0 1 0 1
node 260 0 1 1 1
gene 1 260 2 0.0 0 1 0 1
node 261 0 1 1 1
gene 1 261 2 0.0 0 1 0 1
node 262 0 1 1 1
gene 1 262 2 0.0 0 1 0 1
node 263 0 1 1 1
gene 1 263 2 0.0 0 1 0 1
node 264 0 1 1 1
gene 1 264 2 0.0 0 1 0 1
node 265 0 1 1 1
gene 1 265 2 0.0 0 1 0 1
node 266 0 1 1 1
gene 1 266 2 0.0 0 1 0 1
node 267 0 1 1 1
gene 1 267 2 0.0 0 1 0 1
node 268 0 1 1 1
gene 1 268 2 0.0 0 1 0 1
node 269 0 1 1 1
gene 1 269 2 0.0 0 1 0 1
node 270 0 1 1 1
gene 1 270 2 0.0 0 1 0 1
node 271 0 1 1 1
gene 1 271 2 0.0 0 1 0 1
node 272 0 1 1 1
gene 1 272 2 0.0 0 1 0 1
node 273 0 1 1 1
gene 1 273 2 0.0 0 1 0 1
node 274 0 1 1 1
gene 1 274 2 0.0 0 1 0 1
node 275 0 1 1 1
gene 1 275 2 0.0 0 1 0 1
node 276 0 1 1 1
gene 1 276 2 0.0 0 1 0 1
node 277 0 1 1 1
gene 1 277 2 0.0 0 1 0 1
node 278 0 1 1 1
gene 1 278 2 0.0 0 1 0 1
node 279 0 1 1 1
gene 1 279 2 0.0 0 1 0 1
node 280 0 1 1 1
gene 1 280 2 0.0 0 1 0 1
node 281 0 1 1 1
gene 1 281 2 0.0 0 1 0 1
node 282 0 1 1 1
gene 1 282 2 0.0 0 1 0 1
node 283 0 1 1 1
gene 1 283 2 0.0 0 1 0 1
node 284 0 1 1 1
gene 1 284 2 0.0 0 1 0 1
node 285 0 1 1 1
gene 1 285 2 0.0 0 1 0 1
node 286 0 1 1 1
gene 1 286 2 0.0 0 1 0 1
node 287 0 1 1 1
gene 1 287 2 0.0 0 1 0 1
node 288 0 1 1 1
gene 1 288 2 0.0 0 1 0 1
node 289 0 1 1 1
gene 1 289 2 0.0 0 1 0 1
node 290 0 1 1 1
gene 1 290 2 0.0 0 1 0 1
node 291 0 1 1 1
gene 1 291 2 0.0 0 1 0 1
node 292 0 1 1 1
gene 1 292 2 0.0 0 1 0 1
node 293 0 1 1 1
gene 1 293 2 0.0 0 1 0 1
node 294 0 1 1 1
gene 1 294 2 0.0 0 1 0 1
node 295 0 1 1 1
gene 1 295 2 0.0 0 1 0 1
node 296 0 1 1 1
gene 1 296 2 0.0 0 1 0 1
node 297 0 1 1 1
gene 1 297 2 0.0 0 1 0 1
node 298 0 1 1 1
gene 1 298 2 0.0 0 1 0 1
node 299 0 1 1 1
gene 1 299 2 0.0 0 1 0 1
node 300 0 1 1 1
gene 1 300 2 0.0 0 1 0 1
node 301 0 1 1 1
gene 1 301 2 0.0 0 1 0 1
node 302 0 1 1 1
gene 1 302 2 0.0 0 1 0 1
node 303 0 1 1 1
gene 1 303 2 0.0 0 1 0 1
node 304 0 1 1 1
gene 1 304 2 0.0 0 1 0 1
node 305 0 1 1 1
gene 1 305 2 0.0 0 1 0 1
node 306 0 1 1 1
gene 1 306 2 0.0 0 1 0 1
node 307 0 1 1 1
gene 1 307 2 0.0 0 1 0 1
node 308 0 1 1 1
gene 1 308 2 0.0 0 1 0 1
node 309 0 1 1 1
gene 1 309 2 0.0 0 1 0 1
node 310 0 1 1 1
gene 1 310 2 0.0 0 1 0 1
node 311 0 1 1 1
gene 1 311 2 0.0 0 1 0 1
node 312 0 1 1 1
gene 1 312 2 0.0 0 1 0 1
node 313 0 1 1 1
gene 1 313 2 0.0 0 1 0 1
node 314 0 1 1 1
gene 1 314 2 0.0 0 1 0 1
node 315 0 1 1 1
gene 1 315 2 0.0 0 1 0 1
node 316 0 1 1 1
gene 1 316 2 0.0 0 1 0 1
node 317 0 1 1 1
gene 1 317 2 0.0 0 1 0 1
node 318 0 1 1 1
gene 1 318 2 0.0 0 1 0 1
node 319 0 1 1 1
gene 1 319 2 0.0 0 1 0 1
node 320 0 1 1 1
gene 1 320 2 0.0 0 1 0 1
node 321 0 1 1 1
gene 1 321 2 0.0 0 1 0 1
node 322 0 1 1 1
gene 1 322 2 0.0 0 1 0 1
node 323 0 1 1 1
gene 1 323 2 0.0 0 1 0 1
node 324 0 1 1 1
gene 1 324 2 0.0 0 1 0 1
node 325 0 1 1 1
gene 1 325 2 0.0 0 1 0 1
node 326 0 1 1 1
gene 1 326 2 0.0 0 1 0 1
node 327 0 1 1 1
gene 1 327 2 0.0 0 1 0 1
node 328 0 1 1 1
gene 1 328 2 0.0 0 1 0 1
node 329 0 1 1 1
gene 1 329 2 0.0 0 1 0 1
node 330 0 1 1 1
gene 1 330 2 0.0 0 1 0 1
node 331 0 1 1 1
gene 1 331 2 0.0 0 1 0 1
node 332 0 1 1 1
gene 1 332 2 0.0 0 1 0 1
node 333 0 1 1 1
gene 1 333 2 0.0 0 1 0 1
node 334 0 1 1 1
gene 1 334 2 0.0 0 1 0 1
node 335 0 1 1 1
gene 1 335 2 0.0 0 1 0 1
node 336 0 1 1 1
gene 1 336 2 0.0 0 1 0 1
node 337 0 1 1 1
gene 1 337 2 0.0 0 1 0 1
node 338 0 1 1 1
gene 1 338 2 0.0 0 1 0 1
node 339 0 1 1 1
gene 1 339 2 0.0 0 1 0 1
node 340 0 1 1 1
gene 1 340 2 0.0 0 1 0 1
node 341 0 1 1 1
gene 1 341 2 0.0 0 1 0 1
node 342 0 1 1 1
gene 1 342 2 0.0 0 1 0 1
node 343 0 1 1 1
gene 1 343 2 0.0 0 1 0 1
node 344 0 1 1 1
gene 1 344 2 0.0 0 1 0 1
node 345 0 1 1 1
gene 1 345 2 0.0 0 1 0 1
node 346 0 1 1 1
gene 1 346 2 0.0 0 1 0 1
node 347 0 1 1 1
gene 1 347 2 0.0 0 1 0 1
node 348 0 1 1 1
gene 1 348 2 0.0 0 1 0 1
node 349 0 1 1 1
gene 1 349 2 0.0 0 1 0 1
node 350 0 1 1 1
gene 1 350 2 0.0 0 1 0 1
node 351 0 1 1 1
gene 1 351 2 0.0 0 1 0 1
node 352 0 1 1 1
gene 1 352 2 0.0 0 1 0 1
node 353 0 1 1 1
gene 1 353 2 0.0 0 1 0 1
node 354 0 1 1 1
gene 1 354 2 0.0 0 1 0 1
node 355 0 1 1 1
gene 1 355 2 0.0 0 1 0 1
node 356 0 1 1 1
gene 1 356 2 0.0 0 1 0 1
node 357 0 1 1 1
gene 1 357 2 0.0 0 1 0 1
node 358 0 1 1 1
gene 1 358 2 0.0 0 1 0 1
node 359 0 1 1 1
gene 1 359 2 0.0 0 1 0 1
node 360 0 1 1 1
gene 1 360 2 0.0 0 1 0 1
node 361 0 1 1 1
gene 1 361 2 0.0 0 1 0 1
node 362 0 1 1 1
gene 1 362 2 0.0 0 1 0 1
node 363 0 1 1 1
gene 1 363 2 0.0 0 1 0 1
node 364 0 1 1 1
gene 1 364 2 0.0 0 1 0 1
node 365 0 1 1 1
gene 1 365 2 0.0 0 1 0 1
node 366 0 1 1 1
gene 1 366 2 0.0 0 1 0 1
node 367 0 1 1 1
gene 1 367 2 0.0 0 1 0 1
node 368 0 1 1 1
gene 1 368 2 0.0 0 1 0 1
node 369 0 1 1 1
gene 1 369 2 0.0 0 1 0 1
node 370 0 1 1 1
gene 1 370 2 0.0 0 1 0 1
node 371 0 1 1 1
gene 1 371 2 0.0 0 1 0 1
node 372 0 1 1 1
gene 1 372 2 0.0 0 1 0 1
node 373 0 1 1 1
gene 1 373 2 0.0 0 1 0 1
node 374 0 1 1 1
gene 1 374 2 0.0 0 1 0 1
node 375 0 1 1 1
gene 1 375 2 0.0 0 1 0 1
node 376 0 1 1 1
gene 1 376 2 0.0 0 1 0 1
node 377 0 1 1 1
gene 1 377 2 0.0 0 1 0 1
node 378 0 1 1 1
gene 1 378 2 0.0 0 1 0 1
node 379 0 1 1 1
gene 1 379 2 0.0 0 1 0 1
node 380 0 1 1 1
gene 1 380 2 0.0 0 1 0 1
node 381 0 1 1 1
gene 1 381 2 0.0 0 1 0 1
node 382 0 1 1 1
gene 1 382 2 0.0 0 1 0 1
node 383 0 1 1 1
gene 1 383 2 0.0 0 1 0 1
node 384 0 1 1 1
gene 1 384 2 0.0 0 1 0 1
node 385 0 1 1 1
gene 1 385 2 0.0 0 1 0 1
node 386 0 1 1 1
gene 1 386 2 0.0 0 1 0 1
node 387 0 1 1 1
gene 1 387 2 0.0 0 1 0 1
node 388 0 1 1 1
gene 1 388 2 0.0 0 1 0 1
node 389 0 1 1 1
gene 1 389 2 0.0 0 1 0 1
node 390 0 1 1 1
gene 1 390 2 0.0 0 1 0 1
node 391 0 1 1 1
gene 1 391 2 0.0 0 1 0 1
node 392 0 1 1 1
gene 1 392 2 0.0 0 1 0 1
node 393 0 1 1 1
gene 1 393 2 0.0 0 1 0 1
node 394 0 1 1 1
gene 1 394 2 0.0 0 1 0 1
node 395 0 1 1 1
gene 1 395 2 0.0 0 1 0 1
node 396 0 1 1 1
gene 1 396 2 0.0 0 1 0 1
node 397 0 1 1 1
gene 1 397 2 0.0 0 1 0 1
node 398 0 1 1 1
gene 1 398 2 0.0 0 1 0 1
node 399 0 1 1 1
gene 1 399 2 0.0 0 1 0 1
node 400 0 1 1 1
gene 1 400 2 0.0 0 1 0 1
node 401 0 1 1 1
gene 1 401 2 0.0 0 1 0 1
node 402 0 1 1 1
gene 1 402 2 0.0 0 1 0 1
node 403 0 1 1 1
gene 1 403 2 0.0 0 1 0 1
node 404 0 1 1 1
gene 1 404 2 0.0 0 1 0 1
node 405 0 1 1 1
gene 1 405 2 0.0 0 1 0 1
node 406 0 1 1 1
gene 1 406 2 0.0 0 1 0 1
node 407 0 1 1 1
gene 1 407 2 0.0 0 1 0 1
node 408 0 1 1 1
gene 1 408 2 0.0 0 1 0 1
node 409 0 1 1 1
gene 1 409 2 0.0 0 1 0 1
node 410 0 1 1 1
gene 1 410 2 0.0 0 1 0 1
node 411 0 1 1 1
gene 1 411 2 0.0 0 1 0 1
node 412 0 1 1 1
gene 1 412 2 0.0 0 1 0 1
node 413 0 1 1 1
gene 1 413 2 0.0 0 1 0 1
node 414 0 1 1 1
gene 1 414 2 0.0 0 1 0 1
node 415 0 1 1 1
gene 1 415 2 0.0 0 1 0 1
node 416 0 1 1 1
gene 1 416 2 0.0 0 1 0 1
node 417 0 1 1 1
gene 1 417 2 0.0 0 1 0 1
node 418 0 1 1 1
gene 1 418 2 0.0 0 1 0 1
node 419 0 1 1 1
gene 1 419 2 0.0 0 1 0 1
node 420 0 1 1 1
gene 1 420 2 0.0 0 1 0 1
node 421 0 1 1 1
gene 1 421 2 0.0 0 1 0 1
node 422 0 1 1 1
gene 1 422 2 0.0 0 1 0 1
node 423 0 1 1 1
gene 1 423 2 0.0 0 1 0 1
node 424 0 1 1 1
gene 1 424 2 0.0 0 1 0 1
node 425 0 1 1 1
gene 1 425 2 0.0 0 1 0 1
node 426 0 1 1 1
gene 1 426 2 0.0 0 1 0 1
node 427 0 1 1 1
gene 1 427 2 0.0 0 1 0 1
node 428 0 1 1 1
gene 1 428 2 0.0 0 1 0 1
node 429 0 1 1 1
gene 1 429 2 0.0 0 1 0 1
node 430 0 1 1 1
gene 1 430 2 0.0 0 1 0 1
node 431 0 1 1 1
gene 1 431 2 0.0 0 1 0 1
node 432 0 1 1 1
gene 1 432 2 0.0 0 1 0 1
node 433 0 1 1 1
gene 1 433 2 0.0 0 1 0 1
node 434 0 1 1 1
gene 1 434 2 0.0 0 1 0 1
node 435 0 1 1 1
gene 1 435 2 0.0 0 1 0 1
node 436 0 1 1 1
gene 1 436 2 0.0 0 1 0 1
node 437 0 1 1 1
gene 1 437 2 0.0 0 1 0 1
node 438 0 1 1 1
gene 1 438 2 0.0 0 1 0 1
node 439 0 1 1 1
gene 1 439 2 0.0 0 1 0 1
node 440 0 1 1 1
gene 1 440 2 0.0 0 1 0 1
node 441 0 1 1 1
gene 1 441 2 0.0 0 1 0 1
node 442 0 1 1 1
gene 1 442 2 0.0 0 1 0 1
node 443 0 1 1 1
gene 1 443 2 0.0 0 1 0 1
node 444 0 1 1 1
gene 1 444 2 0.0 0 1 0 1
node 445 0 1 1 1
gene 1 445 2 0.0 0 1 0 1
node 446 0 1 1 1
gene 1 446 2 0.0 0 1 0 1
node 447 0 1 1 1
gene 1 447 2 0.0 0 1 0 1
node 448 0 1 1 1
gene 1 448 2 0.0 0 1 0 1
node 449 0 1 1 1
gene 1 449 2 0.0 0 1 0 1
node 450 0 1 1 1
gene 1 450 2 0.0 0 1 0 1
node 451 0 1 1 1
gene 1 451 2 0.0 0 1 0 1
node 452 0 1 1 1
gene 1 452 2 0.0 0 1 0 1
node 453 0 1 1 1
gene 1 453 2 0.0 0 1 0 1
node 454 0 1 1 1
gene 1 454 2 0.0 0 1 0 1
node 455 0 1 1 1
gene 1 455 2 0.0 0 1 0 1
node 456 0 1 1 1
gene 1 456 2 0.0 0 1 0 1
node 457 0 1 1 1
gene 1 457 2 0.0 0 1 0 1
node 458 0 1 1 1
gene 1 458 2 0.0 0 1 0 1
node 459 0 1 1 1
gene 1 459 2 0.0 0 1 0 1
node 460 0 1 1 1
gene 1 460 2 0.0 0 1 0 1
node 461 0 1 1 1
gene 1 461 2 0.0 0 1 0 1
node 462 0 1 1 1
gene 1 462 2 0.0 0 1 0 1
node 463 0 1 1 1
gene 1 463 2 0.0 0 1 0 1
node 464 0 1 1 1
gene 1 464 2 0.0 0 1 0 1
node 465 0 1 1 1
gene 1 465 2 0.0 0 1 0 1
node 466 0 1 1 1
gene 1 466 2 0.0 0 1 0 1
node 467 0 1 1 1
gene 1 467 2 0.0 0 1 0 1
node 468 0 1 1 1
gene 1 468 2 0.0 0 1 0 1
node 469 0 1 1 1
gene 1 469 2 0.0 0 1 0 1
node 470 0 1 1 1
gene 1 470 2 0.0 0 1 0 1
node 471 0 1 1 1
gene 1 471 2 0.0 0 1 0 1
node 472 0 1 1 1
gene 1 472 2 0.0 0 1 0 1
node 473 0 1 1 1
gene 1 473 2 0.0 0 1 0 1
node 474 0 1 1 1
gene 1 474 2 0.0 0 1 0 1
node 475 0 1 1 1
gene 1 475 2 0.0 0 1 0 1
node 476 0 1 1 1
gene 1 476 2 0.0 0 1 0 1
node 477 0 1 1 1
gene 1 477 2 0.0 0 1 0 1
node 478 0 1 1 1
gene 1 478 2 0.0 0 1 0 1
node 479 0 1 1 1
gene 1 479 2 0.0 0 1 0 1
node 480 0 1 1 1
gene 1 480 2 0.0 0 1 0 1
node 481 0 1 1 1
gene 1 481 2 0.0 0 1 0 1
node 482 0 1 1 1
gene 1 482 2 0.0 0 1 0 1
node 483 0 1 1 1
gene 1 483 2 0.0 0 1 0 1
node 484 0 1 1 1
gene 1 484 2 0.0 0 1 0 1
node 485 0 1 1 1
gene 1 485 2 0.0 0 1 0 1
node 486 0 1 1 1
gene 1 486 2 0.0 0 1 0 1
node 487 0 1 1 1
gene 1 487 2 0.0 0 1 0 1
node 488 0 1 1 1
gene 1 488 2 0.0 0 1 0 1
node 489 0 1 1 1
gene 1 489 2 0.0 0 1 0 1
node 490 0 1 1 1
gene 1 490 2 0.0 0 1 0 1
node 491 0 1 1 1
gene 1 491 2 0.0 0 1 0 1
node 492 0 1 1 1
gene 1 492 2 0.0 0 1 0 1
node 493 0 1 1 1
gene 1 493 2 0.0 0 1 0 1
node 494 0 1 1 1
gene 1 494 2 0.0 0 1 0 1
node 495 0 1 1 1
gene 1 495 2 0.0 0 1 0 1
node 496 0 1 1 1
gene 1 496 2 0.0 0 1 0 1
node 497 0 1 1 1
gene 1 497 2 0.0 0 1 0 1
node 498 0 1 1 1
gene 1 498 2 0.0 0 1 0 1
node 499 0 1 1 1
gene 1 499 2 0.0 0 1 0 1
node 500 0 1 1 1
gene 1 500 2 0.0 0 1 0 1
node 501 0 1 1 1
gene 1 501 2 0.0 0 1 0 1
node 502 0 1 1 1
gene 1 502 2 0.0 0 1 0 1
node 503 0 1 1 1
gene 1 503 2 0.0 0 1 0 1
node 504 0 1 1 1
gene 1 504 2 0.0 0 1 0 1
node 505 0 1 1 1
gene 1 505 2 0.0 0 1 0 1
node 506 0 1 1 1
gene 1 506 2 0.0 0 1 0 1
node 507 0 1 1 1
gene 1 507 2 0.0 0 1 0 1
node 508 0 1 1 1
gene 1 508 2 0.0 0 1 0 1
node 509 0 1 1 1
gene 1 509 2 0.0 0 1 0 1
node 510 0 1 1 1
gene 1 510 2 0.0 0 1 0 1
node 511 0 1 1 1
gene 1 511 2 0.0 0 1 0 1
node 512 0 1 1 1
gene 1 512 2 0.0 0 1 0 1
node 513 0 1 1 1
gene 1 513 2 0.0 0 1 0 1
node 514 0 1 1 1
gene 1 514 2 0.0 0 1 0 1
node 515 0 1 1 1
gene 1 515 2 0.0 0 1 0 1
node 516 0 1 1 1
gene 1 516 2 0.0 0 1 0 1
node 517 0 1 1 1
gene 1 517 2 0.0 0 1 0 1
node 518 0 1 1 1
gene 1 518 2 0.0 0 1 0 1
node 519 0 1 1 1
gene 1 519 2 0.0 0 1 0 1
node 520 0 1 1 1
gene 1 520 2 0.0 0 1 0 1
node 521 0 1 1 1
gene 1 521 2 0.0 0 1 0 1
node 522 0 1 1 1
gene 1 522 2 0.0 0 1 0 1
node 523 0 1 1 1
gene 1 523 2 0.0 0 1 0 1
node 524 0 1 1 1
gene 1 524 2 0.0 0 1 0 1
node 525 0 1 1 1
gene 1 525 2 0.0 0 1 0 1
node 526 0 1 1 1
gene 1 526 2 0.0 0 1 0 1
node 527 0 1 1 1
gene 1 527 2 0.0 0 1 0 1
node 528 0 1 1 1
gene 1 528 2 0.0 0 1 0 1
node 529 0 1 1 1
gene 1 529 2 0.0 0 1 0 1
node 530 0 1 1 1
gene 1 530 2 0.0 0 1 0 1
node 531 0 1 1 1
gene 1 531 2 0.0 0 1 0 1
node 532 0 1 1 1
gene 1 532 2 0.0 0 1 0 1
node 533 0 1 1 1
gene 1 533 2 0.0 0 1 0 1
node 534 0 1 1 1
gene 1 534 2 0.0 0 1 0 1
node 535 0 1 1 1
gene 1 535 2 0.0 0 1 0 1
node 536 0 1 1 1
gene 1 536 2 0.0 0 1 0 1
node 537 0 1 1 1
gene 1 537 2 0.0 0 1 0 1
node 538 0 1 1 1
gene 1 538 2 0.0 0 1 0 1
node 539 0 1 1 1
gene 1 539 2 0.0 0 1 0 1
node 540 0 1 1 1
gene 1 540 2 0.0 0 1 0 1
node 541 0 1 1 1
gene 1 541 2 0.0 0 1 0 1
node 542 0 1 1 1
gene 1 542 2 0.0 0 1 0 1
node 543 0 1 1 1
gene 1 543 2 0.0 0 1 0 1
node 544 0 1 1 1
gene 1 544 2 0.0 0 1 0 1
node 545 0 1 1 1
gene 1 545 2 0.0 0 1 0 1
node 546 0 1 1 1
gene 1 546 2 0.0 0 1 0 1
node 547 0 1 1 1
gene 1 547 2 0.0 0 1 0 1
node 548 0 1 1 1
gene 1 548 2 0.0 0 1 0 1
node 549 0 1 1 1
gene 1 549 2 0.0 0 1 0 1
node 550 0 1 1 1
gene 1 550 2 0.0 0 1 0 1
node 551 0 1 1 1
gene 1 551 2 0.0 0 1 0 1
node 552 0 1 1 1
gene 1 552 2 0.0 0 1 0 1
node 553 0 1 1 1
gene 1 553 2 0.0 0 1 0 1
node 554 0 1 1 1
gene 1 554 2 0.0 0 1 0 1
node 555 0 1 1 1
gene 1 555 2 0.0 0 1 0 1
node 556 0 1 1 1
gene 1 556 2 0.0 0 1 0 1
node 557 0 1 1 1
gene 1 557 2 0.0 0 1 0 1
node 558 0 1 1 1
gene 1 558 2 0.0 0 1 0 1
node 559 0 1 1 1
gene 1 559 2 0.0 0 1 0 1
node 560 0 1 1 1
gene 1 560 2 0.0 0 1 0 1
node 561 0 1 1 1
gene 1 561 2 0.0 0 1 0 1
node 562 0 1 1 1
gene 1 562 2 0.0 0 1 0 1
node 563 0 1 1 1
gene 1 563 2 0.0 0 1 0 1
node 564 0 1 1 1
gene 1 564 2 0.0 0 1 0 1
node 565 0 1 1 1
gene 1 565 2 0.0 0 1 0 1
node 566 0 1 1 1
gene 1 566 2 0.0 0 1 0 1
node 567 0 1 1 1
gene 1 567 2 0.0 0 1 0 1
node 568 0 1 1 1
gene 1 568 2 0.0 0 1 0 1
node 569 0 1 1 1
gene 1 569 2 0.0 0 1 0 1
node 570 0 1 1 1
gene 1 570 2 0.0 0 1 0 1
node 571 0 1 1 1
gene 1 571 2 0.0 0 1 0 1
node 572 0 1 1 1
gene 1 572 2 0.0 0 1 0 1
node 573 0 1 1 1
gene 1 573 2 0.0 0 1 0 1
node 574 0 1 1 1
gene 1 574 2 0.0 0 1 0 1
node 575 0 1 1 1
gene 1 575 2 0.0 0 1 0 1
node 576 0 1 1 1
gene 1 576 2 0.0 0 1 0 1
node 577 0 1 1 1
gene 1 577 2 0.0 0 1 0 1
node 578 0 1 1 1
gene 1 578 2 0.0 0 1 0 1
node 579 0 1 1 1
gene 1 579 2 0.0 0 1 0 1
node 580 0 1 1 1
gene 1 580 2 0.0 0 1 0 1
node 581 0 1 1 1
gene 1 581 2 0.0 0 1 0 1
node 582 0 1 1 1
gene 1 582 2 0.0 0 1 0 1
node 583 0 1 1 1
gene 1 583 2 0.0 0 1 0 1
node 584 0 1 1 1
gene 1 584 2 0.0 0 1 0 1
node 585 0 1 1 1
gene 1 585 2 0.0 0 1 0 1
node 586 0 1 1 1
gene 1 586 2 0.0 0 1 0 1
node 587 0 1 1 1
gene 1 587 2 0.0 0 1 0 1
node 588 0 1 1 1
gene 1 588 2 0.0 0 1 0 1
node 589 0 1 1 1
gene 1 589 2 0.0 0 1 0 1
node 590 0 1 1 1
gene 1 590 2 0.0 0 1 0 1
node 591 0 1 1 1
gene 1 591 2 0.0 0 1 0 1
node 592 0 1 1 1
gene 1 592 2 0.0 0 1 0 1
node 593 0 1 1 1
gene 1 593 2 0.0 0 1 0 1
node 594 0 1 1 1
gene 1 594 2 0.0 0 1 0 1
node 595 0 1 1 1
gene 1 595 2 0.0 0 1 0 1
node 596 0 1 1 1
gene 1 596 2 0.0 0 1 0 1
node 597 0 1 1 1
gene 1 597 2 0.0 0 1 0 1
node 598 0 1 1 1
gene 1 598 2 0.0 0 1 0 1
node 599 0 1 1 1
gene 1 599 2 0.0 0 1 0 1
node 600 0 1 1 1
gene 1 600 2 0.0 0 1 0 1
node 601 0 1 1 1
gene 1 601 2 0.0 0 1 0 1
node 602 0 1 1 1
gene 1 602 2 0.0 0 1 0 1
node 603 0 1 1 1
gene 1 603 2 0.0 0 1 0 1
node 604 0 1 1 1
gene 1 604 2 0.0 0 1 0 1
node 605 0 1 1 1
gene 1 605 2 0.0 0 1 0 1
node 606 0 1 1 1
gene 1 606 2 0.0 0 1 0 1
node 607 0 1 1 1
gene 1 607 2 0.0 0 1 0 1
node 608 0 1 1 1
gene 1 608 2 0.0 0 1 0 1
node 609 0 1 1 1
gene 1 609 2 0.0 0 1 0 1
node 610 0 1 1 1
gene 1 610 2 0.0 0 1 0 1
node 611 0 1 1 1
gene 1 611 2 0.0 0 1 0 1
node 612 0 1 1 1
gene 1 612 2 0.0 0 1 0 1
node 613 0 1 1 1
gene 1 613 2 0.0 0 1 0 1
node 614 0 1 1 1
gene 1 614 2 0.0 0 1 0 1
node 615 0 1 1 1
gene 1 615 2 0.0 0 1 0 1
node 616 0 1 1 1
gene 1 616 2 0.0 0 1 0 1
node 617 0 1 1 1
gene 1 617 2 0.0 0 1 0 1
node 618 0 1 1 1
gene 1 618 2 0.0 0 1 0 1
node 619 0 1 1 1
gene 1 619 2 0.0 0 1 0 1
node 620 0 1 1 1
gene 1 620 2 0.0 0 1 0 1
node 621 0 1 1 1
gene 1 621 2 0.0 0 1 0 1
node 622 0 1 1 1
gene 1 622 2 0.0 0 1 0 1
node 623 0 1 1 1
gene 1 623 2 0.0 0 1 0 1
node 624 0 1 1 1
gene 1 624 2 0.0 0 1 0 1
node 625 0 1 1 1
gene 1 625 2 0.0 0 1 0 1
node 626 0 1 1 1
gene 1 626 2 0.0 0 1 0 1
node 627 0 1 1 1
gene 1 627 2 0.0 0 1 0 1
node 628 0 1 1 1
gene 1 628 2 0.0 0 1 0 1
node 629 0 1 1 1
gene 1 629 2 0.0 0 1 0 1
node 630 0 1 1 1
gene 1 630 2 0.0 0 1 0 1
node 631 0 1 1 1
gene 1 631 2 0.0 0 1 0 1
node 632 0 1 1 1
gene 1 632 2 0.0 0 1 0 1
node 633 0 1 1 1
gene 1 633 2 0.0 0 1 0 1
node 634 0 1 1 1
gene 1 634 2 0.0 0 1 0 1
node 635 0 1 1 1
gene 1 635 2 0.0 0 1 0 1
node 636 0 1 1 1
gene 1 636 2 0.0 0 1 0 1
node 637 0 1 1 1
gene 1 637 2 0.0 0 1 0 1
node 638 0 1 1 1
gene 1 638 2 0.0 0 1 0 1
node 639 0 1 1 1
gene 1 639 2 0.0 0 1 0 1
node 640 0 1 1 1
gene 1 640 2 0.0 0 1 0 1
node 641 0 1 1 1
gene 1 641 2 0.0 0 1 0 1
node 642 0 1 1 1
gene 1 642 2 0.0 0 1 0 1
node 643 0 1 1 1
gene 1 643 2 0.0 0 1 0 1
node 644 0 1 1 1
gene 1 644 2 0.0 0 1 0 1
node 645 0 1 1 1
gene 1 645 2 0.0 0 1 0 1
node 646 0 1 1 1
gene 1 646 2 0.0 0 1 0 1
node 647 0 1 1 1
gene 1 647 2 0.0 0 1 0 1
node 648 0 1 1 1
gene 1 648 2 0.0 0 1 0 1
node 649 0 1 1 1
gene 1 649 2 0.0 0 1 0 1
node 650 0 1 1 1
gene 1 650 2 0.0 0 1 0 1
node 651 0 1 1 1
gene 1 651 2 0.0 0 1 0 1
node 652 0 1 1 1
gene 1 652 2 0.0 0 1 0 1
node 653 0 1 1 1
gene 1 653 2 0.0 0 1 0 1
node 654 0 1 1 1
gene 1 654 2 0.0 0 1 0 1
node 655 0 1 1 1
gene 1 655 2 0.0 0 1 0 1
node 656 0 1 1 1
gene 1 656 2 0.0 0 1 0 1
node 657 0 1 1 1
gene 1 657 2 0.0 0 1 0 1
node 658 0 1 1 1
gene 1 658 2 0.0 0 1 0 1
node 659 0 1 1 1
gene 1 659 2 0.0 0 1 0 1
node 660 0 1 1 1
gene 1 660 2 0.0 0 1 0 1
node 661 0 1 1 1
gene 1 661 2 0.0 0 1 0 1
node 662 0 1 1 1
gene 1 662 2 0.0 0 1 0 1
node 663 0 1 1 1
gene 1 663 2 0.0 0 1 0 1
node 664 0 1 1 1
gene 1 664 2 0.0 0 1 0 1
node 665 0 1 1 1
gene 1 665 2 0.0 0 1 0 1
node 666 0 1 1 1
gene 1 666 2 0.0 0 1 0 1
node 667 0 1 1 1
gene 1 667 2 0.0 0 1 0 1
node 668 0 1 1 1
gene 1 668 2 0.0 0 1 0 1
node 669 0 1 1 1
gene 1 669 2 0.0 0 1 0 1
node 670 0 1 1 1
gene 1 670 2 0.0 0 1 0 1
node 671 0 1 1 1
gene 1 671 2 0.0 0 1 0 1
node 672 0 1 1 1
gene 1 672 2 0.0 0 1 0 1
node 673 0 1 1 1
gene 1 673 2 0.0 0 1 0 1
node 674 0 1 1 1
gene 1 674 2 0.0 0 1 0 1
node 675 0 1 1 1
gene 1 675 2 0.0 0 1 0 1
node 676 0 1 1 1
gene 1 676 2 0.0 0 1 0 1
node 677 0 1 1 1
gene 1 677 2 0.0 0 1 0 1
node 678 0 1 1 1
gene 1 678 2 0.0 0 1 0 1
node 679 0 1 1 1
gene 1 679 2 0.0 0 1 0 1
node 680 0 1 1 1
gene 1 680 2 0.0 0 1 0 1
node 681 0 1 1 1
gene 1 681 2 0.0 0 1 0 1
node 682 0 1 1 1
gene 1 682 2 0.0 0 1 0 1
node 683 0 1 1 1
gene 1 683 2 0.0 0 1 0 1
node 684 0 1 1 1
gene 1 684 2 0.0 0 1 0 1
node 685 0 1 1 1
gene 1 685 2 0.0 0 1 0 1
node 686 0 1 1 1
gene 1 686 2 0.0 0 1 0 1
node 687 0 1 1 1
gene 1 687 2 0.0 0 1 0 1
node 688 0 1 1 1
gene 1 688 2 0.0 0 1 0 1
node 689 0 1 1 1
gene 1 689 2 0.0 0 1 0 1
node 690 0 1 1 1
gene 1 690 2 0.0 0 1 0 1
node 691 0 1 1 1
gene 1 691 2 0.0 0 1 0 1
node 692 0 1 1 1
gene 1 692 2 0.0 0 1 0 1
node 693 0 1 1 1
gene 1 693 2 0.0 0 1 0 1
node 694 0 1 1 1
gene 1 694 2 0.0 0 1 0 1
node 695 0 1 1 1
gene 1 695 2 0.0 0 1 0 1
node 696 0 1 1 1
gene 1 696 2 0.0 0 1 0 1
node 697 0 1 1 1
gene 1 697 2 0.0 0 1 0 1
node 698 0 1 1 1
gene 1 698 2 0.0 0 1 0 1
node 699 0 1 1 1
gene 1 699 2 0.0 0 1 0 1
node 700 0 1 1 1
gene 1 700 2 0.0 0 1 0 1
node 701 0 1 1 1
gene 1 701 2 0.0 0 1 0 1
node 702 0 1 1 1
gene 1 702 2 0.0 0 1 0 1
node 703 0 1 1 1
gene 1 703 2 0.0 0 1 0 1
node 704 0 1 1 1
gene 1 704 2 0.0 0 1 0 1
node 705 0 1 1 1
gene 1 705 2 0.0 0 1 0 1
node 706 0 1 1 1
gene 1 706 2 0.0 0 1 0 1
node 707 0 1 1 1
gene 1 707 2 0.0 0 1 0 1
node 708 0 1 1 1
gene 1 708 2 0.0 0 1 0 1
node 709 0 1 1 1
gene 1 709 2 0.0 0 1 0 1
node 710 0 1 1 1
gene 1 710 2 0.0 0 1 0 1
node 711 0 1 1 1
gene 1 711 2 0.0 0 1 0 1
node 712 0 1 1 1
gene 1 712 2 0.0 0 1 0 1
node 713 0 1 1 1
gene 1 713 2 0.0 0 1 0 1
node 714 0 1 1 1
gene 1 714 2 0.0 0 1 0 1
node 715 0 1 1 1
gene 1 715 2 0.0 0 1 0 1
node 716 0 1 1 1
gene 1 716 2 0.0 0 1 0 1
node 717 0 1 1 1
gene 1 717 2 0.0 0 1 0 1
node 718 0 1 1 1
gene 1 718 2 0.0 0 1 0 1
node 719 0 1 1 1
gene 1 719 2 0.0 0 1 0 1
node 720 0 1 1 1
gene 1 720 2 0.0 0 1 0 1
node 721 0 1 1 1
gene 1 721 2 0.0 0 1 0 1
node 722 0 1 1 1
gene 1 722 2 0.0 0 1 0 1
node 723 0 1 1 1
gene 1 723 2 0.0 0 1 0 1
node 724 0 1 1 1
gene 1 724 2 0.0 0 1 0 1
node 725 0 1 1 1
gene 1 725 2 0.0 0 1 0 1
node 726 0 1 1 1
gene 1 726 2 0.0 0 1 0 1
node 727 0 1 1 1
gene 1 727 2 0.0 0 1 0 1
node 728 0 1 1 1
gene 1 728 2 0.0 0 1 0 1
node 729 0 1 1 1
gene 1 729 2 0.0 0 1 0 1
node 730 0 1 1 1
gene 1 730 2 0.0 0 1 0 1
node 731 0 1 1 1
gene 1 731 2 0.0 0 1 0 1
node 732 0 1 1 1
gene 1 732 2 0.0 0 1 0 1
node 733 0 1 1 1
gene 1 733 2 0.0 0 1 0 1
node 734 0 1 1 1
gene 1 734 2 0.0 0 1 0 1
node 735 0 1 1 1
gene 1 735 2 0.0 0 1 0 1
node 736 0 1 1 1
gene 1 736 2 0.0 0 1 0 1
node 737 0 1 1 1
gene 1 737 2 0.0 0 1 0 1
node 738 0 1 1 1
gene 1 738 2 0.0 0 1 0 1
node 739 0 1 1 1
gene 1 739 2 0.0 0 1 0 1
node 740 0 1 1 1
gene 1 740 2 0.0 0 1 0 1
node 741 0 1 1 1
gene 1 741 2 0.0 0 1 0 1
node 742 0 1 1 1
gene 1 742 2 0.0 0 1 0 1
node 743 0 1 1 1
gene 1 743 2 0.0 0 1 0 1
node 744 0 1 1 1
gene 1 744 2 0.0 0 1 0 1
node 745 0 1 1 1
gene 1 745 2 0.0 0 1 0 1
node 746 0 1 1 1
gene 1 746 2 0.0 0 1 0 1
node 747 0 1 1 1
gene 1 747 2 0.0 0 1 0 1
node 748 0 1 1 1
gene 1 748 2 0.0 0 1 0 1
node 749 0 1 1 1
gene 1 749 2 0.0 0 1 0 1
node 750 0 1 1 1
gene 1 750 2 0.0 0 1 0 1
node 751 0 1 1 1
gene 1 751 2 0.0 0 1 0 1
node 752 0 1 1 1
gene 1 752 2 0.0 0 1 0 1
node 753 0 1 1 1
gene 1 753 2 0.0 0 1 0 1
node 754 0 1 1 1
gene 1 754 2 0.0 0 1 0 1
node 755 0 1 1 1
gene 1 755 2 0.0 0 1 0 1
node 756 0 1 1 1
gene 1 756 2 0.0 0 1 0 1
node 757 0 1 1 1
gene 1 757 2 0.0 0 1 0 1
node 758 0 1 1 1
gene 1 758 2 0.0 0 1 0 1
node 759 0 1 1 1
gene 1 759 2 0.0 0 1 0 1
node 760 0 1 1 1
gene 1 760 2 0.0 0 1 0 1
node 761 0 1 1 1
gene 1 761 2 0.0 0 1 0 1
node 762 0 1 1 1
gene 1 762 2 0.0 0 1 0 1
node 763 0 1 1 1
gene 1 763 2 0.0 0 1 0 1
node 764 0 1 1 1
gene 1 764 2 0.0 0 1 0 1
node 765 0 1 1 1
gene 1 765 2 0.0 0 1 0 1
node 766 0 1 1 1
gene 1 766 2 0.0 0 1 0 1
node 767 0 1 1 1
gene 1 767 2 0.0 0 1 0 1
node 768 0 1 1 1
gene 1 768 2 0.0 0 1 0 1
node 769 0 1 1 1
gene 1 769 2 0.0 0 1 0 1
node 770 0 1 1 1
gene 1 770 2 0.0 0 1 0 1
node 771 0 1 1 1
gene 1 771 2 0.0 0 1 0 1
node 772 0 1 1 1
gene 1 772 2 0.0 0 1 0 1
node 773 0 1 1 1
gene 1 773 2 0.0 0 1 0 1
node 774 0 1 1 1
gene 1 774 2 0.0 0 1 0 1
node 775 0 1 1 1
gene 1 775 2 0.0 0 1 0 1
node 776 0 1 1 1
gene 1 776 2 0.0 0 1 0 1
node 777 0 1 1 1
gene 1 777 2 0.0 0 1 0 1
node 778 0 1 1 1
gene 1 778 2 0.0 0 1 0 1
node 779 0 1 1 1
gene 1 779 2 0.0 0 1 0 1
node 780 0 1 1 1
gene 1 780 2 0.0 0 1 0 1
node 781 0 1 1 1
gene 1 781 2 0.0 0 1 0 1
node 782 0 1 1 1
gene 1 782 2 0.0 0 1 0 1
node 783 0 1 1 1
gene 1 783 2 0.0 0 1 0 1
node 784 0 1 1 1
gene 1 784 2 0.0 0 1 0 1
node 785 0 1 1 1
gene 1 785 2 0.0 0 1 0 1
node 786 0 1 1 1
gene 1 786 2 0.0 0 1 0 1
node 787 0 1 1 1
gene 1 787 2 0.0 0 1 0 1
node 788 0 1 1 1
gene 1 788 2 0.0 0 1 0 1
node 789 0 1 1 1
gene 1 789 2 0.0 0 1 0 1
node 790 0 1 1 1
gene 1 790 2 0.0 0 1 0 1
node 791 0 1 1 1
gene 1 791 2 0.0 0 1 0 1
node 792 0 1 1 1
gene 1 792 2 0.0 0 1 0 1
node 793 0 1 1 1
gene 1 793 2 0.0 0 1 0 1
node 794 0 1 1 1
gene 1 794 2 0.0 0 1 0 1
node 795 0 1 1 1
gene 1 795 2 0.0 0 1 0 1
node 796 0 1 1 1
gene 1 796 2 0.0 0 1 0 1
node 797 0 1 1 1
gene 1 797 2 0.0 0 1 0 1
node 798 0 1 1 1
gene 1 798 2 0.0 0 1 0 1
node 799 0 1 1 1
gene 1 799 2 0.0 0 1 0 1
node 800 0 1 1 1
gene 1 800 2 0.0 0 1 0 1
node 801 0 1 1 1
gene 1 801 2 0.0 0 1 0 1
node 802 0 1 1 1
gene 1 802 2 0.0 0 1 0 1
node 803 0 1 1 1
gene 1 803 2 0.0 0 1 0 1
node 804 0 1 1 1
gene 1 804 2 0.0 0 1 0 1
node 805 0 1 1 1
gene 1 805 2 0.0 0 1 0 1
node 806 0 1 1 1
gene 1 806 2 0.0 0 1 0 1
node 807 0 1 1 1
gene 1 807 2 0.0 0 1 0 1
node 808 0 1 1 1
gene 1 808 2 0.0 0 1 0 1
node 809 0 1 1 1
gene 1 809 2 0.0 0 1 0 1
node 810 0 1 1 1
gene 1 810 2 0.0 0 1 0 1
node 811 0 1 1 1
gene 1 811 2 0.0 0 1 0 1
node 812 0 1 1 1
gene 1 812 2 0.0 0 1 0 1
node 813 0 1 1 1
gene 1 813 2 0.0 0 1 0 1
node 814 0 1 1 1
gene 1 814 2 0.0 0 1 0 1
node 815 0 1 1 1
gene 1 815 2 0.0 0 1 0 1
node 816 0 1 1 1
gene 1 816 2 0.0 0 1 0 1
node 817 0 1 1 1
gene 1 817 2 0.0 0 1 0 1
node 818 0 1 1 1
gene 1 818 2 0.0 0 1 0 1
node 819 0 1 1 1
gene 1 819 2 0.0 0 1 0 1
node 820 0 1 1 1
gene 1 820 2 0.0 0 1 0 1
node 821 0 1 1 1
gene 1 821 2 0.0 0 1 0 1
node 822 0 1 1 1
gene 1 822 2 0.0 0 1 0 1
node 823 0 1 1 1
gene 1 823 2 0.0 0 1 0 1
node 824 0 1 1 1
gene 1 824 2 0.0 0 1 0 1
node 825 0 1 1 1
gene 1 825 2 0.0 0 1 0 1
node 826 0 1 1 1
gene 1 826 2 0.0 0 1 0 1
node 827 0 1 1 1
gene 1 827 2 0.0 0 1 0 1
node 828 0 1 1 1
gene 1 828 2 0.0 0 1 0 1
node 829 0 1 1 1
gene 1 829 2 0.0 0 1 0 1
node 830 0 1 1 1
gene 1 830 2 0.0 0 1 0 1
node 831 0 1 1 1
gene 1 831 2 0.0 0 1 0 1
node 832 0 1 1 1
gene 1 832 2 0.0 0 1 0 1
node 833 0 1 1 1
gene 1 833 2 0.0 0 1 0 1
node 834 0 1 1 1
gene 1 834 2 0.0 0 1 0 1
node 835 0 1 1 1
gene 1 835 2 0.0 0 1 0 1
node 836 0 1 1 1
gene 1 836 2 0.0 0 1 0 1
node 837 0 1 1 1
gene 1 837 2 0.0 0 1 0 1
node 838 0 1 1 1
gene 1 838 2 0.0 0 1 0 1
node 839 0 1 1 1
gene 1 839 2 0.0 0 1 0 1
node 840 0 1 1 1
gene 1 840 2 0.0 0 1 0 1
node 841 0 1 1 1
gene 1 841 2 0.0 0 1 0 1
node 842 0 1 1 1
gene 1 842 2 0.0 0 1 0 1
node 843 0 1 1 1
gene 1 843 2 0.0 0 1 0 1
node 844 0 1 1 1
gene 1 844 2 0.0 0 1 0 1
node 845 0 1 1 1
gene 1 845 2 0.0 0 1 0 1
node 846 0 1 1 1
gene 1 846 2 0.0 0 1 0 1
node 847 0 1 1 1
gene 1 847 2 0.0 0 1 0 1
node 848 0 1 1 1
gene 1 848 2 0.0 0 1 0 1
node 849 0 1 1 1
gene 1 849 2 0.0 0 1 0 1
node 850 0 1 1 1
gene 1 850 2 0.0 0 1 0 1
node 851 0 1 1 1
gene 1 851 2 0.0 0 1 0 1
node 852 0 1 1 1
gene 1 852 2 0.0 0 1 0 1
node 853 0 1 1 1
gene 1 853 2 0.0 0 1 0 1
node 854 0 1 1 1
gene 1 854 2 0.0 0 1 0 1
node 855 0 1 1 1
gene 1 855 2 0.0 0 1 0 1
node 856 0 1 1 1
gene 1 856 2 0.0 0 1 0 1
node 857 0 1 1 1
gene 1 857 2 0.0 0 1 0 1
node 858 0 1 1 1
gene 1 858 2 0.0 0 1 0 1
node 859 0 1 1 1
gene 1 859 2 0.0 0 1 0 1
node 860 0 1 1 1
gene 1 860 2 0.0 0 1 0 1
node 861 0 1 1 1
gene 1 861 2 0.0 0 1 0 1
node 862 0 1 1 1
gene 1 862 2 0.0 0 1 0 1
node 863 0 1 1 1
gene 1 863 2 0.0 0 1 0 1
node 864 0 1 1 1
gene 1 864 2 0.0 0 1 0 1
node 865 0 1 1 1
gene 1 865 2 0.0 0 1 0 1
node 866 0 1 1 1
gene 1 866 2 0.0 0 1 0 1
node 867 0 1 1 1
gene 1 867 2 0.0 0 1 0 1
node 868 0 1 1 1
gene 1 868 2 0.0 0 1 0 1
node 869 0 1 1 1
gene 1 869 2 0.0 0 1 0 1
node 870 0 1 1 1
gene 1 870 2 0.0 0 1 0 1
node 871 0 1 1 1
gene 1 871 2 0.0 0 1 0 1
node 872 0 1 1 1
gene 1 872 2 0.0 0 1 0 1
node 873 0 1 1 1
gene 1 873 2 0.0 0 1 0 1
node 874 0 1 1 1
gene 1 874 2 0.0 0 1 0 1
node 875 0 1 1 1
gene 1 875 2 0.0 0 1 0 1
node 876 0 1 1 1
gene 1 876 2 0.0 0 1 0 1
node 877 0 1 1 1
gene 1 877 2 0.0 0 1 0 1
node 878 0 1 1 1
gene 1 878 2 0.0 0 1 0 1
node 879 0 1 1 1
gene 1 879 2 0.0 0 1 0 1
node 880 0 1 1 1
gene 1 880 2 0.0 0 1 0 1
node 881 0 1 1 1
gene 1 881 2 0.0 0 1 0 1
node 882 0 1 1 1
gene 1 882 2 0.0 0 1 0 1
node 883 0 1 1 1
gene 1 883 2 0.0 0 1 0 1
node 884 0 1 1 1
gene 1 884 2 0.0 0 1 0 1
node 885 0 1 1 1
gene 1 885 2 0.0 0 1 0 1
node 886 0 1 1 1
gene 1 886 2 0.0 0 1 0 1
node 887 0 1 1 1
gene 1 887 2 0.0 0 1 0 1
node 888 0 1 1 1
gene 1 888 2 0.0 0 1 0 1
node 889 0 1 1 1
gene 1 889 2 0.0 0 1 0 1
node 890 0 1 1 1
gene 1 890 2 0.0 0 1 0 1
node 891 0 1 1 1
gene 1 891 2 0.0 0 1 0 1
node 892 0 1 1 1
gene 1 892 2 0.0 0 1 0 1
node 893 0 1 1 1
gene 1 893 2 0.0 0 1 0 1
node 894 0 1 1 1
gene 1 894 2 0.0 0 1 0 1
node 895 0 1 1 1
gene 1 895 2 0.0 0 1 0 1
node 896 0 1 1 1
gene 1 896 2 0.0 0 1 0 1
node 897 0 1 1 1
gene 1 897 2 0.0 0 1 0 1
node 898 0 1 1 1
gene 1 898 2 0.0 0 1 0 1
node 899 0 1 1 1
gene 1 899 2 0.0 0 1 0 1
node 900 0 1 1 1
gene 1 900 2 0.0 0 1 0 1
node 901 0 1 1 1
gene 1 901 2 0.0 0 1 0 1
node 902 0 1 1 1
gene 1 902 2 0.0 0 1 0 1
node 903 0 1 1 1
gene 1 903 2 0.0 0 1 0 1
node 904 0 1 1 1
gene 1 904 2 0.0 0 1 0 1
node 905 0 1 1 1
gene 1 905 2 0.0 0 1 0 1
node 906 0 1 1 1
gene 1 906 2 0.0 0 1 0 1
node 907 0 1 1 1
gene 1 907 2 0.0 0 1 0 1
node 908 0 1 1 1
gene 1 908 2 0.0 0 1 0 1
node 909 0 1 1 1
gene 1 909 2 0.0 0 1 0 1
node 910 0 1 1 1
gene 1 910 2 0.0 0 1 0 1
node 911 0 1 1 1
gene 1 911 2 0.0 0 1 0 1
node 912 0 1 1 1
gene 1 912 2 0.0 0 1 0 1
node 913 0 1 1 1
gene 1 913 2 0.0 0 1 0 1
node 914 0 1 1 1
gene 1 914 2 0.0 0 1 0 1
node 915 0 1 1 1
gene 1 915 2 0.0 0 1 0 1
node 916 0 1 1 1
gene 1 916 2 0.0 0 1 0 1
node 917 0 1 1 1
gene 1 917 2 0.0 0 1 0 1
node 918 0 1 1 1
gene 1 918 2 0.0 0 1 0 1
node 919 0 1 1 1
gene 1 919 2 0.0 0 1 0 1
node 920 0 1 1 1
gene 1 920 2 0.0 0 1 0 1
node 921 0 1 1 1
gene 1 921 2 0.0 0 1 0 1
node 922 0 1 1 1
gene 1 922 2 0.0 0 1 0 1
node 923 0 1 1 1
gene 1 923 2 0.0 0 1 0 1
node 924 0 1 1 1
gene 1 924 2 0.0 0 1 0 1
node 925 0 1 1 1
gene 1 925 2 0.0 0 1 0 1
node 926 0 1 1 1
gene 1 926 2 0.0 0 1 0 1
node 927 0 1 1 1
gene 1 927 2 0.0 0 1 0 1
node 928 0 1 1 1
gene 1 928 2 0.0 0 1 0 1
node 929 0 1 1 1
gene 1 929 2 0.0 0 1 0 1
node 930 0 1 1 1
gene 1 930 2 0.0 0 1 0 1
node 931 0 1 1 1
gene 1 931 2 0.0 0 1 0 1
node 932 0 1 1 1
gene 1 932 2 0.0 0 1 0 1
node 933 0 1 1 1
gene 1 933 2 0.0 0 1 0 1
node 934 0 1 1 1
gene 1 934 2 0.0 0 1 0 1
node 935 0 1 1 1
gene 1 935 2 0.0 0 1 0 1
node 936 0 1 1 1
gene 1 936 2 0.0 0 1 0 1
node 937 0 1 1 1
gene 1 937 2 0.0 0 1 0 1
node 938 0 1 1 1
gene 1 938 2 0.0 0 1 0 1
node 939 0 1 1 1
gene 1 939 2 0.0 0 1 0 1
node 940 0 1 1 1
gene 1 940 2 0.0 0 1 0 1
node 941 0 1 1 1
gene 1 941 2 0.0 0 1 0 1
node 942 0 1 1 1
gene 1 942 2 0.0 0 1 0 1
node 943 0 1 1 1
gene 1 943 2 0.0 0 1 0 1
node 944 0 1 1 1
gene 1 944 2 0.0 0 1 0 1
node 945 0 1 1 1
gene 1 945 2 0.0 0 1 0 1
node 946 0 1 1 1
gene 1 946 2 0.0 0 1 0 1
node 947 0 1 1 1
gene 1 947 2 0.0 0 1 0 1
node 948 0 1 1 1
gene 1 948 2 0.0 0 1 0 1
node 949 0 1 1 1
gene 1 949 2 0.0 0 1 0 1
node 950 0 1 1 1
gene 1 950 2 0.0 0 1 0 1
node 951 0 1 1 1
gene 1 951 2 0.0 0 1 0 1
node 952 0 1 1 1
gene 1 952 2 0.0 0 1 0 1
node 953 0 1 1 1
gene 1 953 2 0.0 0 1 0 1
node 954 0 1 1 1
gene 1 954 2 0.0 0 1 0 1
node 955 0 1 1 1
gene 1 955 2 0.0 0 1 0 1
node 956 0 1 1 1
gene 1 956 2 0.0 0 1 0 1
node 957 0 1 1 1
gene 1 957 2 0.0 0 1 0 1
node 958 0 1 1 1
gene 1 958 2 0.0 0 1 0 1
node 959 0 1 1 1
gene 1 959 2 0.0 0 1 0 1
node 960 0 1 1 1
gene 1 960 2 0.0 0 1 0 1
node 961 0 1 1 1
gene 1 961 2 0.0 0 1 0 1
node 962 0 1 1 1
gene 1 962 2 0.0 0 1 0 1
node 963 0 1 1 1
gene 1 963 2 0.0 0 1 0 1
node 964 0 1 1 1
gene 1 964 2 0.0 0 1 0 1
node 965 0 1 1 1
gene 1 965 2 0.0 0 1 0 1
node 966 0 1 1 1
gene 1 966 2 0.0 0 1 0 1
node 967 0 1 1 1
gene 1 967 2 0.0 0 1 0 1
node 968 0 1 1 1
gene 1 968 2 0.0 0 1 0 1
node 969 0 1 1 1
gene 1 969 2 0.0 0 1 0 1
node 970 0 1 1 1
gene 1 970 2 0.0 0 1 0 1
node 971 0 1 1 1
gene 1 971 2 0.0 0 1 0 1
node 972 0 1 1 1
gene 1 972 2 0.0 0 1 0 1
node 973 0 1 1 1
gene 1 973 2 0.0 0 1 0 1
node 974 0 1 1 1
gene 1 974 2 0.0 0 1 0 1
node 975 0 1 1 1
gene 1 975 2 0.0 0 1 0 1
node 976 0 1 1 1
gene 1 976 2 0.0 0 1 0 1
node 977 0 1 1 1
gene 1 977 2 0.0 0 1 0 1
node 978 0 1 1 1
gene 1 978 2 0.0 0 1 0 1
node 979 0 1 1 1
gene 1 979 2 0.0 0 1 0 1
node 980 0 1 1 1
gene 1 980 2 0.0 0 1 0 1
node 981 0 1 1 1
gene 1 981 2 0.0 0 1 0 1
node 982 0 1 1 1
gene 1 982 2 0.0 0 1 0 1
node 983 0 1 1 1
gene 1 983 2 0.0 0 1 0 1
node 984 0 1 1 1
gene 1 984 2 0.0 0 1 0 1
node 985 0 1 1 1
gene 1 985 2 0.0 0 1 0 1
node 986 0 1 1 1
gene 1 986 2 0.0 0 1 0 1
node 987 0 1 1 1
gene 1 987 2 0.0 0 1 0 1
node 988 0 1 1 1
gene 1 988 2 0.0 0 1 0 1
node 989 0 1 1 1
gene 1 989 2 0.0 0 1 0 1
node 990 0 1 1 1
gene 1 990 2 0.0 0 1 0 1
node 991 0 1 1 1
gene 1 991 2 0.0 0 1 0 1
node 992 0 1 1 1
gene 1 992 2 0.0 0 1 0 1
node 993 0 1 1 1
gene 1 993 2 0.0 0 1 0 1
node 994 0 1 1 1
gene 1 994 2 0.0 0 1 0 1
node 995 0 1 1 1
gene 1 995 2 0.0 0 1 0 1
node 996 0 1 1 1
gene 1 996 2 0.0 0 1 0 1
node 997 0 1 1 1
gene 1 997 2 0.0 0 1 0 1
node 998 0 1 1 1
gene 1 998 2 0.0 0 1 0 1
node 999 0 1 1 1
gene 1 999 2 0.0 0 1 0 1
node 1000 0 1 1 1
gene 1 1000 2 0.0 0 1 0 1
node 1001 0 1 1 1
gene 1 1001 2 0.0 0 1 0 1
node 1002 0 1 1 1
gene 1 1002 2 0.0 0 1 0 1
node 1003 0 1 1 1
gene 1 1003 2 0.0 0 1 0 1
node 1004 0 1 1 1
gene 1 1004 2 0.0 0 1 0 1
node 1005 0 1 1 1
gene 1 1005 2 0.0 0 1 0 1
node 1006 0 1 1 1
gene 1 1006 2 0.0 0 1 0 1
node 1007 0 1 1 1
gene 1 1007 2 0.0 0 1 0 1
node 1008 0 1 1 1
gene 1 1008 2 0.0 0 1 0 1
node 1009 0 1 1 1
gene 1 1009 2 0.0 0 1 0 1
node 1010 0 1 1 1
gene 1 1010 2 0.0 0 1 0 1
node 1011 0 1 1 1
gene 1 1011 2 0.0 0 1 0 1
node 1012 0 1 1 1
gene 1 1012 2 0.0 0 1 0 1
node 1013 0 1 1 1
gene 1 1013 2 0.0 0 1 0 1
node 1014 0 1 1 1
gene 1 1014 2 0.0 0 1 0 1
node 1015 0 1 1 1
gene 1 1015 2 0.0 0 1 0 1
node 1016 0 1 1 1
gene 1 1016 2 0.0 0 1 0 1
node 1017 0 1 1 1
gene 1 1017 2 0.0 0 1 0 1
node 1018 0 1 1 1
gene 1 1018 2 0.0 0 1 0 1
node 1019 0 1 1 1
gene 1 1019 2 0.0 0 1 0 1
node 1020 0 1 1 1
gene 1 1020 2 0.0 0 1 0 1
node 1021 0 1 1 1
gene 1 1021 2 0.0 0 1 0 1
node 1022 0 1 1 1
gene 1 1022 2 0.0 0 1 0 1
node 1023 0 1 1 1
gene 1 1023 2 0.0 0 1 0 1
node 1024 0 1 1 1
gene 1 1024 2 0.0 0 1 0 1
node 1025 0 1 1 1
gene 1 1025 2 0.0 0 1 0 1
node 1026 0 1 1 1
gene 1 1026 2 0.0 0 1 0 1
node 1027 0 1 1 1
gene 1 1027 2 0.0 0 1 0 1
node 1028 0 1 1 1
gene 1 1028 2 0.0 0 1 0 1
node 1029 0 1 1 1
gene 1 1029 2 0.0 0 1 0 1
node 1030 0 1 1 1
gene 1 1030 2 0.0 0 1 0 1
node 1031 0 1 1 1
gene 1 1031 2 0.0 0 1 0 1
node 1032 0 1 1 1
gene 1 1032 2 0.0 0 1 0 1
node 1033 0 1 1 1
gene 1 1033 2 0.0 0 1 0 1
node 1034 0 1 1 1
gene 1 1034 2 0.0 0 1 0 1
node 1035 0 1 1 1
gene 1 1035 2 0.0 0 1 0 1
node 1036 0 1 1 1
gene 1 1036 2 0.0 0 1 0 1
node 1037 0 1 1 1
gene 1 1037 2 0.0 0 1 0 1
node 1038 0 1 1 1
gene 1 1038 2 0.0 0 1 0 1
node 1039 0 1 1 1
gene 1 1039 2 0.0 0 1 0 1
node 1040 0 1 1 1
gene 1 1040 2 0.0 0 1 0 1
node 1041 0 1 1 1
gene 1 1041 2 0.0 0 1 0 1
node 1042 0 1 1 1
gene 1 1042 2 0.0 0 1 0 1
node 1043 0 1 1 1
gene 1 1043 2 0.0 0 1 0 1
node 1044 0 1 1 1
gene 1 1044 2 0.0 0 1 0 1
node 1045 0 1 1 1
gene 1 1045 2 0.0 0 1 0 1
node 1046 0 1 1 1
gene 1 1046 2 0.0 0 1 0 1
node 1047 0 1 1 1
gene 1 1047 2 0.0 0 1 0 1
node 1048 0 1 1 1
gene 1 1048 2 0.0 0 1 0 1
node 1049 0 1 1 1
gene 1 1049 2 0.0 0 1 0 1
node 1050 0 1 1 1
gene 1 1050 2 0.0 0 1 0 1
node 1051 0 1 1 1
gene 1 1051 2 0.0 0 1 0 1
node 1052 0 1 1 1
gene 1 1052 2 0.0 0 1 0 1
node 1053 0 1 1 1
gene 1 1053 2 0.0 0 1 0 1
node 1054 0 1 1 1
gene 1 1054 2 0.0 0 1 0 1
node 1055 0 1 1 1
gene 1 1055 2 0.0 0 1 0 1
node 1056 0 1 1 1
gene 1 1056 2 0.0 0 1 0 1
node 1057 0 1 1 1
gene 1 1057 2 0.0 0 1 0 1
node 1058 0 1 1 1
gene 1 1058 2 0.0 0 1 0 1
node 1059 0 1 1 1
gene 1 1059 2 0.0 0 1 0 1
node 1060 0 1 1 1
gene 1 1060 2 0.0 0 1 0 1
node 1061 0 1 1 1
gene 1 1061 2 0.0 0 1 0 1
node 1062 0 1 1 1
gene 1 1062 2 0.0 0 1 0 1
node 1063 0 1 1 1
gene 1 1063 2 0.0 0 1 0 1
node 1064 0 1 1 1
gene 1 1064 2 0.0 0 1 0 1
node 1065 0 1 1 1
gene 1 1065 2 0.0 0 1 0 1
node 1066 0 1 1 1
gene 1 1066 2 0.0 0 1 0 1
node 1067 0 1 1 1
gene 1 1067 2 0.0 0 1 0 1
node 1068 0 1 1 1
gene 1 1068 2 0.0 0 1 0 1
node 1069 0 1 1 1
gene 1 1069 2 0.0 0 1 0 1
node 1070 0 1 1 1
gene 1 1070 2 0.0 0 1 0 1
node 1071 0 1 1 1
gene 1 1071 2 0.0 0 1 0 1
node 1072 0 1 1 1
gene 1 1072 2 0.0 0 1 0 1
node 1073 0 1 1 1
gene 1 1073 2 0.0 0 1 0 1
node 1074 0 1 1 1
gene 1 1074 2 0.0 0 1 0 1
node 1075 0 1 1 1
gene 1 1075 2 0.0 0 1 0 1
node 1076 0 1 1 1
gene 1 1076 2 0.0 0 1 0 1
node 1077 0 1 1 1
gene 1 1077 2 0.0 0 1 0 1
node 1078 0 1 1 1
gene 1 1078 2 0.0 0 1 0 1
node 1079 0 1 1 1
gene 1 1079 2 0.0 0 1 0 1
node 1080 0 1 1 1
gene 1 1080 2 0.0 0 1 0 1
node 1081 0 1 1 1
gene 1 1081 2 0.0 0 1 0 1
node 1082 0 1 1 1
gene 1 1082 2 0.0 0 1 0 1
node 1083 0 1 1 1
gene 1 1083 2 0.0 0 1 0 1
node 1084 0 1 1 1
gene 1 1084 2 0.0 0 1 0 1
node 1085 0 1 1 1
gene 1 1085 2 0.0 0 1 0 1
node 1086 0 1 1 1
gene 1 1086 2 0.0 0 1 0 1
node 1087 0 1 1 1
gene 1 1087 2 0.0 0 1 0 1
node 1088 0 1 1 1
gene 1 1088 2 0.0 0 1 0 1
node 1089 0 1 1 1
gene 1 1089 2 0.0 0 1 0 1
node 1090 0 1 1 1
gene 1 1090 2 0.0 0 1 0 1
node 1091 0 1 1 1
gene 1 1091 2 0.0 0 1 0 1
node 1092 0 1 1 1
gene 1 1092 2 0.0 0 1 0 1
node 1093 0 1 1 1
gene 1 1093 2 0.0 0 1 0 1
node 1094 0 1 1 1
gene 1 1094 2 0.0 0 1 0 1
node 1095 0 1 1 1
gene 1 1095 2 0.0 0 1 0 1
node 1096 0 1 1 1
gene 1 1096 2 0.0 0 1 0 1
node 1097 0 1 1 1
gene 1 1097 2 0.0 0 1 0 1
node 1098 0 1 1 1
gene 1 1098 2 0.0 0 1 0 1
node 1099 0 1 1 1
gene 1 1099 2 0.0 0 1 0 1
node 1100 0 1 1 1
gene 1 1100 2 0.0 0 1 0 1
node 1101 0 1 1 1
gene 1 1101 2 0.0 0 1 0 1
node 1102 0 1 1 1
gene 1 1102 2 0.0 0 1 0 1
node 1103 0 1 1 1
gene 1 1103 2 0.0 0 1 0 1
node 1104 0 1 1 1
gene 1 1104 2 0.0 0 1 0 1
node 1105 0 1 1 1
gene 1 1105 2 0.0 0 1 0 1
node 1106 0 1 1 1
gene 1 1106 2 0.0 0 1 0 1
node 1107 0 1 1 1
gene 1 1107 2 0.0 0 1 0 1
node 1108 0 1 1 1
gene 1 1108 2 0.0 0 1 0 1
node 1109 0 1 1 1
gene 1 1109 2 0.0 0 1 0 1
node 1110 0 1 1 1
gene 1 1110 2 0.0 0 1 0 1
node 1111 0 1 1 1
gene 1 1111 2 0.0 0 1 0 1
node 1112 0 1 1 1
gene 1 1112 2 0.0 0 1 0 1
node 1113 0 1 1 1
gene 1 1113 2 0.0 0 1 0 1
node 1114 0 1 1 1
gene 1 1114 2 0.0 0 1 0 1
node 1115 0 1 1 1
gene 1 1115 2 0.0 0 1 0 1
node 1116 0 1 1 1
gene 1 1116 2 0.0 0 1 0 1
node 1117 0 1 1 1
gene 1 1117 2 0.0 0 1 0 1
node 1118 0 1 1 1
gene 1 1118 2 0.0 0 1 0 1
node 1119 0 1 1 1
gene 1 1119 2 0.0 0 1 0 1
node 1120 0 1 1 1
gene 1 1120 2 0.0 0 1 0 1
node 1121 0 1 1 1
gene 1 1121 2 0.0 0 1 0 1
node 1122 0 1 1 1
gene 1 1122 2 0.0 0 1 0 1
node 1123 0 1 1 1
gene 1 1123 2 0.0 0 1 0 1
node 1124 0 1 1 1
gene 1 1124 2 0.0 0 1 0 1
node 1125 0 1 1 1
gene 1 1125 2 0.0 0 1 0 1
node 1126 0 1 1 1
gene 1 1126 2 0.0 0 1 0 1
node 1127 0 1 1 1
gene 1 1127 2 0.0 0 1 0 1
node 1128 0 1 1 1
gene 1 1128 2 0.0 0 1 0 1
node 1129 0 1 1 1
gene 1 1129 2 0.0 0 1 0 1
node 1130 0 1 1 1
gene 1 1130 2 0.0 0 1 0 1
node 1131 0 1 1 1
gene 1 1131 2 0.0 0 1 0 1
node 1132 0 1 1 1
gene 1 1132 2 0.0 0 1 0 1
node 1133 0 1 1 1
gene 1 1133 2 0.0 0 1 0 1
node 1134 0 1 1 1
gene 1 1134 2 0.0 0 1 0 1
node 1135 0 1 1 1
gene 1 1135 2 0.0 0 1 0 1
node 1136 0 1 1 1
gene 1 1136 2 0.0 0 1 0 1
node 1137 0 1 1 1
gene 1 1137 2 0.0 0 1 0 1
node 1138 0 1 1 1
gene 1 1138 2 0.0 0 1 0 1
node 1139 0 1 1 1
gene 1 1139 2 0.0 0 1 0 1
node 1140 0 1 1 1
gene 1 1140 2 0.0 0 1 0 1
node 1141 0 1 1 1
gene 1 1141 2 0.0 0 1 0 1
node 1142 0 1 1 1
gene 1 1142 2 0.0 0 1 0 1
node 1143 0 1 1 1
gene 1 1143 2 0.0 0 1 0 1
node 1144 0 1 1 1
gene 1 1144 2 0.0 0 1 0 1
node 1145 0 1 1 1
gene 1 1145 2 0.0 0 1 0 1
node 1146 0 1 1 1
gene 1 1146 2 0.0 0 1 0 1
node 1147 0 1 1 1
gene 1 1147 2 0.0 0 1 0 1
node 1148 0 1 1 1
gene 1 1148 2 0.0 0 1 0 1
node 1149 0 1 1 1
gene 1 1149 2 0.0 0 1 0 1
node 1150 0 1 1 1
gene 1 1150 2 0.0 0 1 0 1
node 1151 0 1 1 1
gene 1 1151 2 0.0 0 1 0 1
node 1152 0 1 1 1
gene 1 1152 2 0.0 0 1 0 1
node 1153 0 1 1 1
gene 1 1153 2 0.0 0 1 0 1
node 1154 0 1 1 1
gene 1 1154 2 0.0 0 1 0 1
node 1155 0 1 1 1
gene 1 1155 2 0.0 0 1 0 1
node 1156 0 1 1 1
gene 1 1156 2 0.0 0 1 0 1
node 1157 0 1 1 1
gene 1 1157 2 0.0 0 1 0 1
node 1158 0 1 1 1
gene 1 1158 2 0.0 0 1 0 1
node 1159 0 1 1 1
gene 1 1159 2 0.0 0 1 0 1
node 1160 0 1 1 1
gene 1 1160 2 0.0 0 1 0 1
node 1161 0 1 1 1
gene 1 1161 2 0.0 0 1 0 1
node 1162 0 1 1 1
gene 1 1162 2 0.0 0 1 0 1
node 1163 0 1 1 1
gene 1 1163 2 0.0 0 1 0 1
node 1164 0 1 1 1
gene 1 1164 2 0.0 0 1 0 1
node 1165 0 1 1 1
gene 1 1165 2 0.0 0 1 0 1
node 1166 0 1 1 1
gene 1 1166 2 0.0 0 1 0 1
node 1167 0 1 1 1
gene 1 1167 2 0.0 0 1 0 1
node 1168 0 1 1 1
gene 1 1168 2 0.0 0 1 0 1
node 1169 0 1 1 1
gene 1 1169 2 0.0 0 1 0 1
node 1170 0 1 1 1
gene 1 1170 2 0.0 0 1 0 1
node 1171 0 1 1 1
gene 1 1171 2 0.0 0 1 0 1
node 1172 0 1 1 1
gene 1 1172 2 0.0 0 1 0 1
node 1173 0 1 1 1
gene 1 1173 2 0.0 0 1 0 1
node 1174 0 1 1 1
gene 1 1174 2 0.0 0 1 0 1
node 1175 0 1 1 1
gene 1 1175 2 0.0 0 1 0 1
node 1176 0 1 1 1
gene 1 1176 2 0.0 0 1 0 1
node 1177 0 1 1 1
gene 1 1177 2 0.0 0 1 0 1
node 1178 0 1 1 1
gene 1 1178 2 0.0 0 1 0 1
node 1179 0 1 1 1
gene 1 1179 2 0.0 0 1 0 1
node 1180 0 1 1 1
gene 1 1180 2 0.0 0 1 0 1
node 1181 0 1 1 1
gene 1 1181 2 0.0 0 1 0 1
node 1182 0 1 1 1
gene 1 1182 2 0.0 0 1 0 1
node 1183 0 1 1 1
gene 1 1183 2 0.0 0 1 0 1
node 1184 0 1 1 1
gene 1 1184 2 0.0 0 1 0 1
node 1185 0 1 1 1
gene 1 1185 2 0.0 0 1 0 1
node 1186 0 1 1 1
gene 1 1186 2 0.0 0 1 0 1
node 1187 0 1 1 1
gene 1 1187 2 0.0 0 1 0 1
node 1188 0 1 1 1
gene 1 1188 2 0.0 0 1 0 1
node 1189 0 1 1 1
gene 1 1189 2 0.0 0 1 0 1
node 1190 0 1 1 1
gene 1 1190 2 0.0 0 1 0 1
node 1191 0 1 1 1
gene 1 1191 2 0.0 0 1 0 1
node 1192 0 1 1 1
gene 1 1192 2 0.0 0 1 0 1
node 1193 0 1 1 1
gene 1 1193 2 0.0 0 1 0 1
node 1194 0 1 1 1
gene 1 1194 2 0.0 0 1 0 1
node 1195 0 1 1 1
gene 1 1195 2 0.0 0 1 0 1
node 1196 0 1 1 1
gene 1 1196 2 0.0 0 1 0 1
node 1197 0 1 1 1
gene 1 1197 2 0.0 0 1 0 1
node 1198 0 1 1 1
gene 1 1198 2 0.0 0 1 0 1
node 1199 0 1 1 1
gene 1 1199 2 0.0 0 1 0 1
node 1200 0 1 1 1
gene 1 1200 2 0.0 0 1 0 1
node 1201 0 1 1 1
gene 1 1201 2 0.0 0 1 0 1
node 1202 0 1 1 1
gene 1 1202 2 0.0 0 1 0 1
node 1203 0 1 1 1
gene 1 1203 2 0.0 0 1 0 1
node 1204 0 1 1 1
gene 1 1204 2 0.0 0 1 0 1
node 1205 0 1 1 1
gene 1 1205 2 0.0 0 1 0 1
node 1206 0 1 1 1
gene 1 1206 2 0.0 0 1 0 1
node 1207 0 1 1 1
gene 1 1207 2 0.0 0 1 0 1
node 1208 0 1 1 1
gene 1 1208 2 0.0 0 1 0 1
node 1209 0 1 1 1
gene 1 1209 2 0.0 0 1 0 1
node 1210 0 1 1 1
gene 1 1210 2 0.0 0 1 0 1
node 1211 0 1 1 1
gene 1 1211 2 0.0 0 1 0 1
node 1212 0 1 1 1
gene 1 1212 2 0.0 0 1 0 1
node 1213 0 1 1 1
gene 1 1213 2 0.0 0 1 0 1
node 1214 0 1 1 1
gene 1 1214 2 0.0 0 1 0 1
node 1215 0 1 1 1
gene 1 1215 2 0.0 0 1 0 1
node 1216 0 1 1 1
gene 1 1216 2 0.0 0 1 0 1
node 1217 0 1 1 1
gene 1 1217 2 0.0 0 1 0 1
node 1218 0 1 1 1
gene 1 1218 2 0.0 0 1 0 1
node 1219 0 1 1 1
gene 1 1219 2 0.0 0 1 0 1
node 1220 0 1 1 1
gene 1 1220 2 0.0 0 1 0 1
node 1221 0 1 1 1
gene 1 1221 2 0.0 0 1 0 1
node 1222 0 1 1 1
gene 1 1222 2 0.0 0 1 0 1
node 1223 0 1 1 1
gene 1 1223 2 0.0 0 1 0 1
node 1224 0 1 1 1
gene 1 1224 2 0.0 0 1 0 1
node 1225 0 1 1 1
gene 1 1225 2 0.0 0 1 0 1
node 1226 0 1 1 1
gene 1 1226 2 0.0 0 1 0 1
node 1227 0 1 1 1
gene 1 1227 2 0.0 0 1 0 1
node 1228 0 1 1 1
gene 1 1228 2 0.0 0 1 0 1
node 1229 0 1 1 1
gene 1 1229 2 0.0 0 1 0 1
node 1230 0 1 1 1
gene 1 1230 2 0.0 0 1 0 1
node 1231 0 1 1 1
gene 1 1231 2 0.0 0 1 0 1
node 1232 0 1 1 1
gene 1 1232 2 0.0 0 1 0 1
node 1233 0 1 1 1
gene 1 1233 2 0.0 0 1 0 1
node 1234 0 1 1 1
gene 1 1234 2 0.0 0 1 0 1
node 1235 0 1 1 1
gene 1 1235 2 0.0 0 1 0 1
node 1236 0 1 1 1
gene 1 1236 2 0.0 0 1 0 1
node 1237 0 1 1 1
gene 1 1237 2 0.0 0 1 0 1
node 1238 0 1 1 1
gene 1 1238 2 0.0 0 1 0 1
node 1239 0 1 1 1
gene 1 1239 2 0.0 0 1 0 1
node 1240 0 1 1 1
gene 1 1240 2 0.0 0 1 0 1
node 1241 0 1 1 1
gene 1 1241 2 0.0 0 1 0 1
node 1242 0 1 1 1
gene 1 1242 2 0.0 0 1 0 1
node 1243 0 1 1 1
gene 1 1243 2 0.0 0 1 0 1
node 1244 0 1 1 1
gene 1 1244 2 0.0 0 1 0 1
node 1245 0 1 1 1
gene 1 1245 2 0.0 0 1 0 1
node 1246 0 1 1 1
gene 1 1246 2 0.0 0 1 0 1
node 1247 0 1 1 1
gene 1 1247 2 0.0 0 1 0 1
node 1248 0 1 1 1
gene 1 1248 2 0.0 0 1 0 1
node 1249 0 1 1 1
gene 1 1249 2 0.0 0 1 0 1
node 1250 0 1 1 1
gene 1 1250 2 0.0 0 1 0 1
node 1251 0 1 1 1
gene 1 1251 2 0.0 0 1 0 1
node 1252 0 1 1 1
gene 1 1252 2 0.0 0 1 0 1
node 1253 0 1 1 1
gene 1 1253 2 0.0 0 1 0 1
node 1254 0 1 1 1
gene 1 1254 2 0.0 0 1 0 1
node 1255 0 1 1 1
gene 1 1255 2 0.0 0 1 0 1
node 1256 0 1 1 1
gene 1 1256 2 0.0 0 1 0 1
node 1257 0 1 1 1
gene 1 1257 2 0.0 0 1 0 1
node 1258 0 1 1 1
gene 1 1258 2 0.0 0 1 0 1
node 1259 0 1 1 1
gene 1 1259 2 0.0 0 1 0 1
node 1260 0 1 1 1
gene 1 1260 2 0.0 0 1 0 1
node 1261 0 1 1 1
gene 1 1261 2 0.0 0 1 0 1
node 1262 0 1 1 1
gene 1 1262 2 0.0 0 1 0 1
node 1263 0 1 1 1
gene 1 1263 2 0.0 0 1 0 1
node 1264 0 1 1 1
gene 1 1264 2 0.0 0 1 0 1
node 1265 0 1 1 1
gene 1 1265 2 0.0 0 1 0 1
node 1266 0 1 1 1
gene 1 1266 2 0.0 0 1 0 1
node 1267 0 1 1 1
gene 1 1267 2 0.0 0 1 0 1
node 1268 0 1 1 1
gene 1 1268 2 0.0 0 1 0 1
node 1269 0 1 1 1
gene 1 1269 2 0.0 0 1 0 1
node 1270 0 1 1 1
gene 1 1270 2 0.0 0 1 0 1
node 1271 0 1 1 1
gene 1 1271 2 0.0 0 1 0 1
node 1272 0 1 1 1
gene 1 1272 2 0.0 0 1 0 1
node 1273 0 1 1 1
gene 1 1273 2 0.0 0 1 0 1
node 1274 0 1 1 1
gene 1 1274 2 0.0 0 1 0 1
node 1275 0 1 1 1
gene 1 1275 2 0.0 0 1 0 1
node 1276 0 1 1 1
gene 1 1276 2 0.0 0 1 0 1
node 1277 0 1 1 1
gene 1 1277 2 0.0 0 1 0 1
node 1278 0 1 1 1
gene 1 1278 2 0.0 0 1 0 1
node 1279 0 1 1 1
gene 1 1279 2 0.0 0 1 0 1
node 1280 0 1 1 1
gene 1 1280 2 0.0 0 1 0 1
node 1281 0 1 1 1
gene 1 1281 2 0.0 0 1 0 1
node 1282 0 1 1 1
gene 1 1282 2 0.0 0 1 0 1
node 1283 0 1 1 1
gene 1 1283 2 0.0 0 1 0 1
node 1284 0 1 1 1
gene 1 1284 2 0.0 0 1 0 1
node 1285 0 1 1 1
gene 1 1285 2 0.0 0 1 0 1
node 1286 0 1 1 1
gene 1 1286 2 0.0 0 1 0 1
node 1287 0 1 1 1
gene 1 1287 2 0.0 0 1 0 1
node 1288 0 1 1 1
gene 1 1288 2 0.0 0 1 0 1
node 1289 0 1 1 1
gene 1 1289 2 0.0 0 1 0 1
node 1290 0 1 1 1
gene 1 1290 2 0.0 0 1 0 1
node 1291 0 1 1 1
gene 1 1291 2 0.0 0 1 0 1
node 1292 0 1 1 1
gene 1 1292 2 0.0 0 1 0 1
node 1293 0 1 1 1
gene 1 1293 2 0.0 0 1 0 1
node 1294 0 1 1 1
gene 1 1294 2 0.0 0 1 0 1
node 1295 0 1 1 1
gene 1 1295 2 0.0 0 1 0 1
node 1296 0 1 1 1
gene 1 1296 2 0.0 0 1 0 1
node 1297 0 1 1 1
gene 1 1297 2 0.0 0 1 0 1
node 1298 0 1 1 1
gene 1 1298 2 0.0 0 1 0 1
node 1299 0 1 1 1
gene 1 1299 2 0.0 0 1 0 1
node 1300 0 1 1 1
gene 1 1300 2 0.0 0 1 0 1
node 1301 0 1 1 1
gene 1 1301 2 0.0 0 1 0 1
node 1302 0 1 1 1
gene 1 1302 2 0.0 0 1 0 1
node 1303 0 1 1 1
gene 1 1303 2 0.0 0 1 0 1
node 1304 0 1 1 1
gene 1 1304 2 0.0 0 1 0 1
node 1305 0 1 1 1
gene 1 1305 2 0.0 0 1 0 1
node 1306 0 1 1 1
gene 1 1306 2 0.0 0 1 0 1
node 1307 0 1 1 1
gene 1 1307 2 0.0 0 1 0 1
node 1308 0 1 1 1
gene 1 1308 2 0.0 0 1 0 1
node 1309 0 1 1 1
gene 1 1309 2 0.0 0 1 0 1
node 1310 0 1 1 1
gene 1 1310 2 0.0 0 1 0 1
node 1311 0 1 1 1
gene 1 1311 2 0.0 0 1 0 1
node 1312 0 1 1 1
gene 1 1312 2 0.0 0 1 0 1
node 1313 0 1 1 1
gene 1 1313 2 0.0 0 1 0 1
node 1314 0 1 1 1
gene 1 1314 2 0.0 0 1 0 1
node 1315 0 1 1 1
gene 1 1315 2 0.0 0 1 0 1
node 1316 0 1 1 1
gene 1 1316 2 0.0 0 1 0 1
node 1317 0 1 1 1
gene 1 1317 2 0.0 0 1 0 1
node 1318 0 1 1 1
gene 1 1318 2 0.0 0 1 0 1
node 1319 0 1 1 1
gene 1 1319 2 0.0 0 1 0 1
node 1320 0 1 1 1
gene 1 1320 2 0.0 0 1 0 1
node 1321 0 1 1 1
gene 1 1321 2 0.0 0 1 0 1
node 1322 0 1 1 1
gene 1 1322 2 0.0 0 1 0 1
node 1323 0 1 1 1
gene 1 1323 2 0.0 0 1 0 1
node 1324 0 1 1 1
gene 1 1324 2 0.0 0 1 0 1
node 1325 0 1 1 1
gene 1 1325 2 0.0 0 1 0 1
node 1326 0 1 1 1
gene 1 1326 2 0.0 0 1 0 1
node 1327 0 1 1 1
gene 1 1327 2 0.0 0 1 0 1
node 1328 0 1 1 1
gene 1 1328 2 0.0 0 1 0 1
node 1329 0 1 1 1
gene 1 1329 2 0.0 0 1 0 1
node 1330 0 1 1 1
gene 1 1330 2 0.0 0 1 0 1
node 1331 0 1 1 1
gene 1 1331 2 0.0 0 1 0 1
node 1332 0 1 1 1
gene 1 1332 2 0.0 0 1 0 1
node 1333 0 1 1 1
gene 1 1333 2 0.0 0 1 0 1
node 1334 0 1 1 1
gene 1 1334 2 0.0 0 1 0 1
node 1335 0 1 1 1
gene 1 1335 2 0.0 0 1 0 1
node 1336 0 1 1 1
gene 1 1336 2 0.0 0 1 0 1
node 1337 0 1 1 1
gene 1 1337 2 0.0 0 1 0 1
node 1338 0 1 1 1
gene 1 1338 2 0.0 0 1 0 1
node 1339 0 1 1 1
gene 1 1339 2 0.0 0 1 0 1
node 1340 0 1 1 1
gene 1 1340 2 0.0 0 1 0 1
node 1341 0 1 1 1
gene 1 1341 2 0.0 0 1 0 1
node 1342 0 1 1 1
gene 1 1342 2 0.0 0 1 0 1
node 1343 0 1 1 1
gene 1 1343 2 0.0 0 1 0 1
node 1344 0 1 1 1
gene 1 1344 2 0.0 0 1 0 1
node 1345 0 1 1 1
gene 1 1345 2 0.0 0 1 0 1
node 1346 0 1 1 1
gene 1 1346 2 0.0 0 1 0 1
node 1347 0 1 1 1
gene 1 1347 2 0.0 0 1 0 1
node 1348 0 1 1 1
gene 1 1348 2 0.0 0 1 0 1
node 1349 0 1 1 1
gene 1 1349 2 0.0 0 1 0 1
node 1350 0 1 1 1
gene 1 1350 2 0.0 0 1 0 1
node 1351 0 1 1 1
gene 1 1351 2 0.0 0 1 0 1
node 1352 0 1 1 1
gene 1 1352 2 0.0 0 1 0 1
node 1353 0 1 1 1
gene 1 1353 2 0.0 0 1 0 1
node 1354 0 1 1 1
gene 1 1354 2 0.0 0 1 0 1
node 1355 0 1 1 1
gene 1 1355 2 0.0 0 1 0 1
node 1356 0 1 1 1
gene 1 1356 2 0.0 0 1 0 1
node 1357 0 1 1 1
gene 1 1357 2 0.0 0 1 0 1
node 1358 0 1 1 1
gene 1 1358 2 0.0 0 1 0 1
node 1359 0 1 1 1
gene 1 1359 2 0.0 0 1 0 1
node 1360 0 1 1 1
gene 1 1360 2 0.0 0 1 0 1
node 1361 0 1 1 1
gene 1 1361 2 0.0 0 1 0 1
node 1362 0 1 1 1
gene 1 1362 2 0.0 0 1 0 1
node 1363 0 1 1 1
gene 1 1363 2 0.0 0 1 0 1
node 1364 0 1 1 1
gene 1 1364 2 0.0 0 1 0 1
node 1365 0 1 1 1
gene 1 1365 2 0.0 0 1 0 1
node 1366 0 1 1 1
gene 1 1366 2 0.0 0 1 0 1
node 1367 0 1 1 1
gene 1 1367 2 0.0 0 1 0 1
node 1368 0 1 1 1
gene 1 1368 2 0.0 0 1 0 1
node 1369 0 1 1 1
gene 1 1369 2 0.0 0 1 0 1
node 1370 0 1 1 1
gene 1 1370 2 0.0 0 1 0 1
node 1371 0 1 1 1
gene 1 1371 2 0.0 0 1 0 1
node 1372 0 1 1 1
gene 1 1372 2 0.0 0 1 0 1
node 1373 0 1 1 1
gene 1 1373 2 0.0 0 1 0 1
node 1374 0 1 1 1
gene 1 1374 2 0.0 0 1 0 1
node 1375 0 1 1 1
gene 1 1375 2 0.0 0 1 0 1
node 1376 0 1 1 1
gene 1 1376 2 0.0 0 1 0 1
node 1377 0 1 1 1
gene 1 1377 2 0.0 0 1 0 1
node 1378 0 1 1 1
gene 1 1378 2 0.0 0 1 0 1
node 1379 0 1 1 1
gene 1 1379 2 0.0 0 1 0 1
node 1380 0 1 1 1
gene 1 1380 2 0.0 0 1 0 1
node 1381 0 1 1 1
gene 1 1381 2 0.0 0 1 0 1
node 1382 0 1 1 1
gene 1 1382 2 0.0 0 1 0 1
node 1383 0 1 1 1
gene 1 1383 2 0.0 0 1 0 1
node 1384 0 1 1 1
gene 1 1384 2 0.0 0 1 0 1
node 1385 0 1 1 1
gene 1 1385 2 0.0 0 1 0 1
node 1386 0 1 1 1
gene 1 1386 2 0.0 0 1 0 1
node 1387 0 1 1 1
gene 1 1387 2 0.0 0 1 0 1
node 1388 0 1 1 1
gene 1 1388 2 0.0 0 1 0 1
node 1389 0 1 1 1
gene 1 1389 2 0.0 0 1 0 1
node 1390 0 1 1 1
gene 1 1390 2 0.0 0 1 0 1
node 1391 0 1 1 1
gene 1 1391 2 0.0 0 1 0 1
node 1392 0 1 1 1
gene 1 1392 2 0.0 0 1 0 1
node 1393 0 1 1 1
gene 1 1393 2 0.0 0 1 0 1
node 1394 0 1 1 1
gene 1 1394 2 0.0 0 1 0 1
node 1395 0 1 1 1
gene 1 1395 2 0.0 0 1 0 1
node 1396 0 1 1 1
gene 1 1396 2 0.0 0 1 0 1
node 1397 0 1 1 1
gene 1 1397 2 0.0 0 1 0 1
node 1398 0 1 1 1
gene 1 1398 2 0.0 0 1 0 1
node 1399 0 1 1 1
gene 1 1399 2 0.0 0 1 0 1
node 1400 0 1 1 1
gene 1 1400 2 0.0 0 1 0 1
node 1401 0 1 1 1
gene 1 1401 2 0.0 0 1 0 1
node 1402 0 1 1 1
gene 1 1402 2 0.0 0 1 0 1
node 1403 0 1 1 1
gene 1 1403 2 0.0 0 1 0 1
node 1404 0 1 1 1
gene 1 1404 2 0.0 0 1 0 1
node 1405 0 1 1 1
gene 1 1405 2 0.0 0 1 0 1
node 1406 0 1 1 1
gene 1 1406 2 0.0 0 1 0 1
node 1407 0 1 1 1
gene 1 1407 2 0.0 0 1 0 1
node 1408 0 1 1 1
gene 1 1408 2 0.0 0 1 0 1
node 1409 0 1 1 1
gene 1 1409 2 0.0 0 1 0 1
node 1410 0 1 1 1
gene 1 1410 2 0.0 0 1 0 1
node 1411 0 1 1 1
gene 1 1411 2 0.0 0 1 0 1
node 1412 0 1 1 1
gene 1 1412 2 0.0 0 1 0 1
node 1413 0 1 1 1
gene 1 1413 2 0.0 0 1 0 1
node 1414 0 1 1 1
gene 1 1414 2 0.0 0 1 0 1
node 1415 0 1 1 1
gene 1 1415 2 0.0 0 1 0 1
node 1416 0 1 1 1
gene 1 1416 2 0.0 0 1 0 1
node 1417 0 1 1 1
gene 1 1417 2 0.0 0 1 0 1
node 1418 0 1 1 1
gene 1 1418 2 0.0 0 1 0 1
node 1419 0 1 1 1
gene 1 1419 2 0.0 0 1 0 1
node 1420 0 1 1 1
gene 1 1420 2 0.0 0 1 0 1
node 1421 0 1 1 1
gene 1 1421 2 0.0 0 1 0 1
node 1422 0 1 1 1
gene 1 1422 2 0.0 0 1 0 1
node 1423 0 1 1 1
gene 1 1423 2 0.0 0 1 0 1
node 1424 0 1 1 1
gene 1 1424 2 0.0 0 1 0 1
node 1425 0 1 1 1
gene 1 1425 2 0.0 0 1 0 1
node 1426 0 1 1 1
gene 1 1426 2 0.0 0 1 0 1
node 1427 0 1 1 1
gene 1 1427 2 0.0 0 1 0 1
node 1428 0 1 1 1
gene 1 1428 2 0.0 0 1 0 1
node 1429 0 1 1 1
gene 1 1429 2 0.0 0 1 0 1
node 1430 0 1 1 1
gene 1 1430 2 0.0 0 1 0 1
node 1431 0 1 1 1
gene 1 1431 2 0.0 0 1 0 1
node 1432 0 1 1 1
gene 1 1432 2 0.0 0 1 0 1
node 1433 0 1 1 1
gene 1 1433 2 0.0 0 1 0 1
node 1434 0 1 1 1
gene 1 1434 2 0.0 0 1 0 1
node 1435 0 1 1 1
gene 1 1435 2 0.0 0 1 0 1
node 1436 0 1 1 1
gene 1 1436 2 0.0 0 1 0 1
node 1437 0 1 1 1
gene 1 1437 2 0.0 0 1 0 1
node 1438 0 1 1 1
gene 1 1438 2 0.0 0 1 0 1
node 1439 0 1 1 1
gene 1 1439 2 0.0 0 1 0 1
node 1440 0 1 1 1
gene 1 1440 2 0.0 0 1 0 1
node 1441 0 1 1 1
gene 1 1441 2 0.0 0 1 0 1
node 1442 0 1 1 1
gene 1 1442 2 0.0 0 1 0 1
node 1443 0 1 1 1
gene 1 1443 2 0.0 0 1 0 1
node 1444 0 1 1 1
gene 1 1444 2 0.0 0 1 0 1
node 1445 0 1 1 1
gene 1 1445 2 0.0 0 1 0 1
node 1446 0 1 1 1
gene 1 1446 2 0.0 0 1 0 1
node 1447 0 1 1 1
gene 1 1447 2 0.0 0 1 0 1
node 1448 0 1 1 1
gene 1 1448 2 0.0 0 1 0 1
node 1449 0 1 1 1
gene 1 1449 2 0.0 0 1 0 1
node 1450 0 1 1 1
gene 1 1450 2 0.0 0 1 0 1
node 1451 0 1 1 1
gene 1 1451 2 0.0 0 1 0 1
node 1452 0 1 1 1
gene 1 1452 2 0.0 0 1 0 1
node 1453 0 1 1 1
gene 1 1453 2 0.0 0 1 0 1
node 1454 0 1 1 1
gene 1 1454 2 0.0 0 1 0 1
node 1455 0 1 1 1
gene 1 1455 2 0.0 0 1 0 1
node 1456 0 1 1 1
gene 1 1456 2 0.0 0 1 0 1
node 1457 0 1 1 1
gene 1 1457 2 0.0 0 1 0 1
node 1458 0 1 1 1
gene 1 1458 2 0.0 0 1 0 1
node 1459 0 1 1 1
gene 1 1459 2 0.0 0 1 0 1
node 1460 0 1 1 1
gene 1 1460 2 0.0 0 1 0 1
node 1461 0 1 1 1
gene 1 1461 2 0.0 0 1 0 1
node 1462 0 1 1 1
gene 1 1462 2 0.0 0 1 0 1
node 1463 0 1 1 1
gene 1 1463 2 0.0 0 1 0 1
node 1464 0 1 1 1
gene 1 1464 2 0.0 0 1 0 1
node 1465 0 1 1 1
gene 1 1465 2 0.0 0 1 0 1
node 1466 0 1 1 1
gene 1 1466 2 0.0 0 1 0 1
node 1467 0 1 1 1
gene 1 1467 2 0.0 0 1 0 1
node 1468 0 1 1 1
gene 1 1468 2 0.0 0 1 0 1
node 1469 0 1 1 1
gene 1 1469 2 0.0 0 1 0 1
node 1470 0 1 1 1
gene 1 1470 2 0.0 0 1 0 1
node 1471 0 1 1 1
gene 1 1471 2 0.0 0 1 0 1
node 1472 0 1 1 1
gene 1 1472 2 0.0 0 1 0 1
node 1473 0 1 1 1
gene 1 1473 2 0.0 0 1 0 1
node 1474 0 1 1 1
gene 1 1474 2 0.0 0 1 0 1
node 1475 0 1 1 1
gene 1 1475 2 0.0 0 1 0 1
node 1476 0 1 1 1
gene 1 1476 2 0.0 0 1 0 1
node 1477 0 1 1 1
gene 1 1477 2 0.0 0 1 0 1
node 1478 0 1 1 1
gene 1 1478 2 0.0 0 1 0 1
node 1479 0 1 1 1
gene 1 1479 2 0.0 0 1 0 1
node 1480 0 1 1 1
gene 1 1480 2 0.0 0 1 0 1
node 1481 0 1 1 1
gene 1 1481 2 0.0 0 1 0 1
node 1482 0 1 1 1
gene 1 1482 2 0.0 0 1 0 1
node 1483 0 1 1 1
gene 1 1483 2 0.0 0 1 0 1
node 1484 0 1 1 1
gene 1 1484 2 0.0 0 1 0 1
node 1485 0 1 1 1
gene 1 1485 2 0.0 0 1 0 1
node 1486 0 1 1 1
gene 1 1486 2 0.0 0 1 0 1
node 1487 0 1 1 1
gene 1 1487 2 0.0 0 1 0 1
node 1488 0 1 1 1
gene 1 1488 2 0.0 0 1 0 1
node 1489 0 1 1 1
gene 1 1489 2 0.0 0 1 0 1
node 1490 0 1 1 1
gene 1 1490 2 0.0 0 1 0 1
node 1491 0 1 1 1
gene 1 1491 2 0.0 0 1 0 1
node 1492 0 1 1 1
gene 1 1492 2 0.0 0 1 0 1
node 1493 0 1 1 1
gene 1 1493 2 0.0 0 1 0 1
node 1494 0 1 1 1
gene 1 1494 2 0.0 0 1 0 1
node 1495 0 1 1 1
gene 1 1495 2 0.0 0 1 0 1
node 1496 0 1 1 1
gene 1 1496 2 0.0 0 1 0 1
node 1497 0 1 1 1
gene 1 1497 2 0.0 0 1 0 1
node 1498 0 1 1 1
gene 1 1498 2 0.0 0 1 0 1
node 1499 0 1 1 1
gene 1 1499 2 0.0 0 1 0 1
node 1500 0 1 1 1
gene 1 1500 2 0.0 0 1 0 1
node 1501 0 1 1 1
gene 1 1501 2 0.0 0 1 0 1
node 1502 0 1 1 1
gene 1 1502 2 0.0 0 1 0 1
node 1503 0 1 1 1
gene 1 1503 2 0.0 0 1 0 1
node 1504 0 1 1 1
gene 1 1504 2 0.0 0 1 0 1
node 1505 0 1 1 1
gene 1 1505 2 0.0 0 1 0 1
node 1506 0 1 1 1
gene 1 1506 2 0.0 0 1 0 1
node 1507 0 1 1 1
gene 1 1507 2 0.0 0 1 0 1
node 1508 0 1 1 1
gene 1 1508 2 0.0 0 1 0 1
node 1509 0 1 1 1
gene 1 1509 2 0.0 0 1 0 1
node 1510 0 1 1 1
gene 1 1510 2 0.0 0 1 0 1
node 1511 0 1 1 1
gene 1 1511 2 0.0 0 1 0 1
node 1512 0 1 1 1
gene 1 1512 2 0.0 0 1 0 1
node 1513 0 1 1 1
gene 1 1513 2 0.0 0 1 0 1
node 1514 0 1 1 1
gene 1 1514 2 0.0 0 1 0 1
node 1515 0 1 1 1
gene 1 1515 2 0.0 0 1 0 1
node 1516 0 1 1 1
gene 1 1516 2 0.0 0 1 0 1
node 1517 0 1 1 1
gene 1 1517 2 0.0 0 1 0 1
node 1518 0 1 1 1
gene 1 1518 2 0.0 0 1 0 1
node 1519 0 1 1 1
gene 1 1519 2 0.0 0 1 0 1
node 1520 0 1 1 1
gene 1 1520 2 0.0 0 1 0 1
node 1521 0 1 1 1
gene 1 1521 2 0.0 0 1 0 1
node 1522 0 1 1 1
gene 1 1522 2 0.0 0 1 0 1
node 1523 0 1 1 1
gene 1 1523 2 0.0 0 1 0 1
node 1524 0 1 1 1
gene 1 1524 2 0.0 0 1 0 1
node 1525 0 1 1 1
gene 1 1525 2 0.0 0 1 0 1
node 1526 0 1 1 1
gene 1 1526 2 0.0 0 1 0 1
node 1527 0 1 1 1
gene 1 1527 2 0.0 0 1 0 1
node 1528 0 1 1 1
gene 1 1528 2 0.0 0 1 0 1
node 1529 0 1 1 1
gene 1 1529 2 0.0 0 1 0 1
node 1530 0 1 1 1
gene 1 1530 2 0.0 0 1 0 1
node 1531 0 1 1 1
gene 1 1531 2 0.0 0 1 0 1
node 1532 0 1 1 1
gene 1 1532 2 0.0 0 1 0 1
node 1533 0 1 1 1
gene 1 1533 2 0.0 0 1 0 1
node 1534 0 1 1 1
gene 1 1534 2 0.0 0 1 0 1
node 1535 0 1 1 1
gene 1 1535 2 0.0 0 1 0 1
node 1536 0 1 1 1
gene 1 1536 2 0.0 0 1 0 1
node 1537 0 1 1 1
gene 1 1537 2 0.0 0 1 0 1
node 1538 0 1 1 1
gene 1 1538 2 0.0 0 1 0 1
node 1539 0 1 1 1
gene 1 1539 2 0.0 0 1 0 1
node 1540 0 1 1 1
gene 1 1540 2 0.0 0 1 0 1
node 1541 0 1 1 1
gene 1 1541 2 0.0 0 1 0 1
node 1542 0 1 1 1
gene 1 1542 2 0.0 0 1 0 1
node 1543 0 1 1 1
gene 1 1543 2 0.0 0 1 0 1
node 1544 0 1 1 1
gene 1 1544 2 0.0 0 1 0 1
node 1545 0 1 1 1
gene 1 1545 2 0.0 0 1 0 1
node 1546 0 1 1 1
gene 1 1546 2 0.0 0 1 0 1
node 1547 0 1 1 1
gene 1 1547 2 0.0 0 1 0 1
node 1548 0 1 1 1
gene 1 1548 2 0.0 0 1 0 1
node 1549 0 1 1 1
gene 1 1549 2 0.0 0 1 0 1
node 1550 0 1 1 1
gene 1 1550 2 0.0 0 1 0 1
node 1551 0 1 1 1
gene 1 1551 2 0.0 0 1 0 1
node 1552 0 1 1 1
gene 1 1552 2 0.0 0 1 0 1
node 1553 0 1 1 1
gene 1 1553 2 0.0 0 1 0 1
node 1554 0 1 1 1
gene 1 1554 2 0.0 0 1 0 1
node 1555 0 1 1 1
gene 1 1555 2 0.0 0 1 0 1
node 1556 0 1 1 1
gene 1 1556 2 0.0 0 1 0 1
node 1557 0 1 1 1
gene 1 1557 2 0.0 0 1 0 1
node 1558 0 1 1 1
gene 1 1558 2 0.0 0 1 0 1
node 1559 0 1 1 1
gene 1 1559 2 0.0 0 1 0 1
node 1560 0 1 1 1
gene 1 1560 2 0.0 0 1 0 1
node 1561 0 1 1 1
gene 1 1561 2 0.0 0 1 0 1
node 1562 0 1 1 1
gene 1 1562 2 0.0 0 1 0 1
node 1563 0 1 1 1
gene 1 1563 2 0.0 0 1 0 1
node 1564 0 1 1 1
gene 1 1564 2 0.0 0 1 0 1
node 1565 0 1 1 1
gene 1 1565 2 0.0 0 1 0 1
node 1566 0 1 1 1
gene 1 1566 2 0.0 0 1 0 1
node 1567 0 1 1 1
gene 1 1567 2 0.0 0 1 0 1
node 1568 0 1 1 1
gene 1 1568 2 0.0 0 1 0 1
node 1569 0 1 1 1
gene 1 1569 2 0.0 0 1 0 1
node 1570 0 1 1 1
gene 1 1570 2 0.0 0 1 0 1
node 1571 0 1 1 1
gene 1 1571 2 0.0 0 1 0 1
node 1572 0 1 1 1
gene 1 1572 2 0.0 0 1 0 1
node 1573 0 1 1 1
gene 1 1573 2 0.0 0 1 0 1
node 1574 0 1 1 1
gene 1 1574 2 0.0 0 1 0 1
node 1575 0 1 1 1
gene 1 1575 2 0.0 0 1 0 1
node 1576 0 1 1 1
gene 1 1576 2 0.0 0 1 0 1
node 1577 0 1 1 1
gene 1 1577 2 0.0 0 1 0 1
node 1578 0 1 1 1
gene 1 1578 2 0.0 0 1 0 1
node 1579 0 1 1 1
gene 1 1579 2 0.0 0 1 0 1
node 1580 0 1 1 1
gene 1 1580 2 0.0 0 1 0 1
node 1581 0 1 1 1
gene 1 1581 2 0.0 0 1 0 1
node 1582 0 1 1 1
gene 1 1582 2 0.0 0 1 0 1
node 1583 0 1 1 1
gene 1 1583 2 0.0 0 1 0 1
node 1584 0 1 1 1
gene 1 1584 2 0.0 0 1 0 1
node 1585 0 1 1 1
gene 1 1585 2 0.0 0 1 0 1
node 1586 0 1 1 1
gene 1 1586 2 0.0 0 1 0 1
node 1587 0 1 1 1
gene 1 1587 2 0.0 0 1 0 1
node 1588 0 1 1 1
gene 1 1588 2 0.0 0 1 0 1
node 1589 0 1 1 1
gene 1 1589 2 0.0 0 1 0 1
node 1590 0 1 1 1
gene 1 1590 2 0.0 0 1 0 1
node 1591 0 1 1 1
gene 1 1591 2 0.0 0 1 0 1
node 1592 0 1 1 1
gene 1 1592 2 0.0 0 1 0 1
node 1593 0 1 1 1
gene 1 1593 2 0.0 0 1 0 1
node 1594 0 1 1 1
gene 1 1594 2 0.0 0 1 0 1
node 1595 0 1 1 1
gene 1 1595 2 0.0 0 1 0 1
node 1596 0 1 1 1
gene 1 1596 2 0.0 0 1 0 1
node 1597 0 1 1 1
gene 1 1597 2 0.0 0 1 0 1
node 1598 0 1 1 1
gene 1 1598 2 0.0 0 1 0 1
node 1599 0 1 1 1
gene 1 1599 2 0.0 0 1 0 1
node 1600 0 1 1 1
gene 1 1600 2 0.0 0 1 0 1
node 1601 0 1 1 1
gene 1 1601 2 0.0 0 1 0 1
node 1602 0 1 1 1
gene 1 1602 2 0.0 0 1 0 1


node 1603 1 1 1 1
gene 2 1603 2 0.0 0 1 0 1
node 1604 1 1 1 1
gene 2 1604 2 0.0 0 1 0 1
node 1605 1 1 1 1
gene 2 1605 2 0.0 0 1 0 1
node 1606 1 1 1 1
gene 2 1606 2 0.0 0 1 0 1
node 1607 1 1 1 1
gene 2 1607 2 0.0 0 1 0 1
node 1608 1 1 1 1
gene 2 1608 2 0.0 0 1 0 1
node 1609 1 1 1 1
gene 2 1609 2 0.0 0 1 0 1
node 1610 1 1 1 1
gene 2 1610 2 0.0 0 1 0 1
node 1611 1 1 1 1
gene 2 1611 2 0.0 0 1 0 1
node 1612 1 1 1 1
gene 2 1612 2 0.0 0 1 0 1
node 1613 1 1 1 1
gene 2 1613 2 0.0 0 1 0 1
node 1614 1 1 1 1
gene 2 1614 2 0.0 0 1 0 1
node 1615 1 1 1 1
gene 2 1615 2 0.0 0 1 0 1
node 1616 1 1 1 1
gene 2 1616 2 0.0 0 1 0 1
node 1617 1 1 1 1
gene 2 1617 2 0.0 0 1 0 1
node 1618 1 1 1 1
gene 2 1618 2 0.0 0 1 0 1
node 1619 1 1 1 1
gene 2 1619 2 0.0 0 1 0 1
node 1620 1 1 1 1
gene 2 1620 2 0.0 0 1 0 1
node 1621 1 1 1 1
gene 2 1621 2 0.0 0 1 0 1
node 1622 1 1 1 1
gene 2 1622 2 0.0 0 1 0 1
node 1623 1 1 1 1
gene 2 1623 2 0.0 0 1 0 1
node 1624 1 1 1 1
gene 2 1624 2 0.0 0 1 0 1
node 1625 1 1 1 1
gene 2 1625 2 0.0 0 1 0 1
node 1626 1 1 1 1
gene 2 1626 2 0.0 0 1 0 1
node 1627 1 1 1 1
gene 2 1627 2 0.0 0 1 0 1
node 1628 1 1 1 1
gene 2 1628 2 0.0 0 1 0 1
node 1629 1 1 1 1
gene 2 1629 2 0.0 0 1 0 1
node 1630 1 1 1 1
gene 2 1630 2 0.0 0 1 0 1
node 1631 1 1 1 1
gene 2 1631 2 0.0 0 1 0 1
node 1632 1 1 1 1
gene 2 1632 2 0.0 0 1 0 1
node 1633 1 1 1 1
gene 2 1633 2 0.0 0 1 0 1
node 1634 1 1 1 1
gene 2 1634 2 0.0 0 1 0 1
node 1635 1 1 1 1
gene 2 1635 2 0.0 0 1 0 1
node 1636 1 1 1 1
gene 2 1636 2 0.0 0 1 0 1
node 1637 1 1 1 1
gene 2 1637 2 0.0 0 1 0 1
node 1638 1 1 1 1
gene 2 1638 2 0.0 0 1 0 1
node 1639 1 1 1 1
gene 2 1639 2 0.0 0 1 0 1
node 1640 1 1 1 1
gene 2 1640 2 0.0 0 1 0 1
node 1641 1 1 1 1
gene 2 1641 2 0.0 0 1 0 1
node 1642 1 1 1 1
gene 2 1642 2 0.0 0 1 0 1
node 1643 1 1 1 1
gene 2 1643 2 0.0 0 1 0 1
node 1644 1 1 1 1
gene 2 1644 2 0.0 0 1 0 1
node 1645 1 1 1 1
gene 2 1645 2 0.0 0 1 0 1
node 1646 1 1 1 1
gene 2 1646 2 0.0 0 1 0 1
node 1647 1 1 1 1
gene 2 1647 2 0.0 0 1 0 1
node 1648 1 1 1 1
gene 2 1648 2 0.0 0 1 0 1
node 1649 1 1 1 1
gene 2 1649 2 0.0 0 1 0 1
node 1650 1 1 1 1
gene 2 1650 2 0.0 0 1 0 1
node 1651 1 1 1 1
gene 2 1651 2 0.0 0 1 0 1
node 1652 1 1 1 1
gene 2 1652 2 0.0 0 1 0 1
node 1653 1 1 1 1
gene 2 1653 2 0.0 0 1 0 1
node 1654 1 1 1 1
gene 2 1654 2 0.0 0 1 0 1
node 1655 1 1 1 1
gene 2 1655 2 0.0 0 1 0 1
node 1656 1 1 1 1
gene 2 1656 2 0.0 0 1 0 1
node 1657 1 1 1 1
gene 2 1657 2 0.0 0 1 0 1
node 1658 1 1 1 1
gene 2 1658 2 0.0 0 1 0 1
node 1659 1 1 1 1
gene 2 1659 2 0.0 0 1 0 1
node 1660 1 1 1 1
gene 2 1660 2 0.0 0 1 0 1
node 1661 1 1 1 1
gene 2 1661 2 0.0 0 1 0 1
node 1662 1 1 1 1
gene 2 1662 2 0.0 0 1 0 1
node 1663 1 1 1 1
gene 2 1663 2 0.0 0 1 0 1
node 1664 1 1 1 1
gene 2 1664 2 0.0 0 1 0 1
node 1665 1 1 1 1
gene 2 1665 2 0.0 0 1 0 1
node 1666 1 1 1 1
gene 2 1666 2 0.0 0 1 0 1
node 1667 1 1 1 1
gene 2 1667 2 0.0 0 1 0 1
node 1668 1 1 1 1
gene 2 1668 2 0.0 0 1 0 1
node 1669 1 1 1 1
gene 2 1669 2 0.0 0 1 0 1
node 1670 1 1 1 1
gene 2 1670 2 0.0 0 1 0 1
node 1671 1 1 1 1
gene 2 1671 2 0.0 0 1 0 1
node 1672 1 1 1 1
gene 2 1672 2 0.0 0 1 0 1
node 1673 1 1 1 1
gene 2 1673 2 0.0 0 1 0 1
node 1674 1 1 1 1
gene 2 1674 2 0.0 0 1 0 1
node 1675 1 1 1 1
gene 2 1675 2 0.0 0 1 0 1
node 1676 1 1 1 1
gene 2 1676 2 0.0 0 1 0 1
node 1677 1 1 1 1
gene 2 1677 2 0.0 0 1 0 1
node 1678 1 1 1 1
gene 2 1678 2 0.0 0 1 0 1
node 1679 1 1 1 1
gene 2 1679 2 0.0 0 1 0 1
node 1680 1 1 1 1
gene 2 1680 2 0.0 0 1 0 1
node 1681 1 1 1 1
gene 2 1681 2 0.0 0 1 0 1
node 1682 1 1 1 1
gene 2 1682 2 0.0 0 1 0 1
node 1683 1 1 1 1
gene 2 1683 2 0.0 0 1 0 1
node 1684 1 1 1 1
gene 2 1684 2 0.0 0 1 0 1
node 1685 1 1 1 1
gene 2 1685 2 0.0 0 1 0 1
node 1686 1 1 1 1
gene 2 1686 2 0.0 0 1 0 1
node 1687 1 1 1 1
gene 2 1687 2 0.0 0 1 0 1
node 1688 1 1 1 1
gene 2 1688 2 0.0 0 1 0 1
node 1689 1 1 1 1
gene 2 1689 2 0.0 0 1 0 1
node 1690 1 1 1 1
gene 2 1690 2 0.0 0 1 0 1
node 1691 1 1 1 1
gene 2 1691 2 0.0 0 1 0 1
node 1692 1 1 1 1
gene 2 1692 2 0.0 0 1 0 1
node 1693 1 1 1 1
gene 2 1693 2 0.0 0 1 0 1
node 1694 1 1 1 1
gene 2 1694 2 0.0 0 1 0 1
node 1695 1 1 1 1
gene 2 1695 2 0.0 0 1 0 1
node 1696 1 1 1 1
gene 2 1696 2 0.0 0 1 0 1
node 1697 1 1 1 1
gene 2 1697 2 0.0 0 1 0 1
node 1698 1 1 1 1
gene 2 1698 2 0.0 0 1 0 1
node 1699 1 1 1 1
gene 2 1699 2 0.0 0 1 0 1
node 1700 1 1 1 1
gene 2 1700 2 0.0 0 1 0 1
node 1701 1 1 1 1
gene 2 1701 2 0.0 0 1 0 1
node 1702 1 1 1 1
gene 2 1702 2 0.0 0 1 0 1
node 1703 1 1 1 1
gene 2 1703 2 0.0 0 1 0 1
node 1704 1 1 1 1
gene 2 1704 2 0.0 0 1 0 1
node 1705 1 1 1 1
gene 2 1705 2 0.0 0 1 0 1
node 1706 1 1 1 1
gene 2 1706 2 0.0 0 1 0 1
node 1707 1 1 1 1
gene 2 1707 2 0.0 0 1 0 1
node 1708 1 1 1 1
gene 2 1708 2 0.0 0 1 0 1
node 1709 1 1 1 1
gene 2 1709 2 0.0 0 1 0 1
node 1710 1 1 1 1
gene 2 1710 2 0.0 0 1 0 1
node 1711 1 1 1 1
gene 2 1711 2 0.0 0 1 0 1
node 1712 1 1 1 1
gene 2 1712 2 0.0 0 1 0 1
node 1713 1 1 1 1
gene 2 1713 2 0.0 0 1 0 1
node 1714 1 1 1 1
gene 2 1714 2 0.0 0 1 0 1
node 1715 1 1 1 1
gene 2 1715 2 0.0 0 1 0 1
node 1716 1 1 1 1
gene 2 1716 2 0.0 0 1 0 1
node 1717 1 1 1 1
gene 2 1717 2 0.0 0 1 0 1
node 1718 1 1 1 1
gene 2 1718 2 0.0 0 1 0 1
node 1719 1 1 1 1
gene 2 1719 2 0.0 0 1 0 1
node 1720 1 1 1 1
gene 2 1720 2 0.0 0 1 0 1
node 1721 1 1 1 1
gene 2 1721 2 0.0 0 1 0 1
node 1722 1 1 1 1
gene 2 1722 2 0.0 0 1 0 1
node 1723 1 1 1 1
gene 2 1723 2 0.0 0 1 0 1
node 1724 1 1 1 1
gene 2 1724 2 0.0 0 1 0 1
node 1725 1 1 1 1
gene 2 1725 2 0.0 0 1 0 1
node 1726 1 1 1 1
gene 2 1726 2 0.0 0 1 0 1
node 1727 1 1 1 1
gene 2 1727 2 0.0 0 1 0 1
node 1728 1 1 1 1
gene 2 1728 2 0.0 0 1 0 1
node 1729 1 1 1 1
gene 2 1729 2 0.0 0 1 0 1
node 1730 1 1 1 1
gene 2 1730 2 0.0 0 1 0 1
node 1731 1 1 1 1
gene 2 1731 2 0.0 0 1 0 1
node 1732 1 1 1 1
gene 2 1732 2 0.0 0 1 0 1
node 1733 1 1 1 1
gene 2 1733 2 0.0 0 1 0 1
node 1734 1 1 1 1
gene 2 1734 2 0.0 0 1 0 1
node 1735 1 1 1 1
gene 2 1735 2 0.0 0 1 0 1
node 1736 1 1 1 1
gene 2 1736 2 0.0 0 1 0 1
node 1737 1 1 1 1
gene 2 1737 2 0.0 0 1 0 1
node 1738 1 1 1 1
gene 2 1738 2 0.0 0 1 0 1
node 1739 1 1 1 1
gene 2 1739 2 0.0 0 1 0 1
node 1740 1 1 1 1
gene 2 1740 2 0.0 0 1 0 1
node 1741 1 1 1 1
gene 2 1741 2 0.0 0 1 0 1
node 1742 1 1 1 1
gene 2 1742 2 0.0 0 1 0 1
node 1743 1 1 1 1
gene 2 1743 2 0.0 0 1 0 1
node 1744 1 1 1 1
gene 2 1744 2 0.0 0 1 0 1
node 1745 1 1 1 1
gene 2 1745 2 0.0 0 1 0 1
node 1746 1 1 1 1
gene 2 1746 2 0.0 0 1 0 1
node 1747 1 1 1 1
gene 2 1747 2 0.0 0 1 0 1
node 1748 1 1 1 1
gene 2 1748 2 0.0 0 1 0 1
node 1749 1 1 1 1
gene 2 1749 2 0.0 0 1 0 1
node 1750 1 1 1 1
gene 2 1750 2 0.0 0 1 0 1
node 1751 1 1 1 1
gene 2 1751 2 0.0 0 1 0 1
node 1752 1 1 1 1
gene 2 1752 2 0.0 0 1 0 1
node 1753 1 1 1 1
gene 2 1753 2 0.0 0 1 0 1
node 1754 1 1 1 1
gene 2 1754 2 0.0 0 1 0 1
node 1755 1 1 1 1
gene 2 1755 2 0.0 0 1 0 1
node 1756 1 1 1 1
gene 2 1756 2 0.0 0 1 0 1
node 1757 1 1 1 1
gene 2 1757 2 0.0 0 1 0 1
node 1758 1 1 1 1
gene 2 1758 2 0.0 0 1 0 1
node 1759 1 1 1 1
gene 2 1759 2 0.0 0 1 0 1
node 1760 1 1 1 1
gene 2 1760 2 0.0 0 1 0 1
node 1761 1 1 1 1
gene 2 1761 2 0.0 0 1 0 1
node 1762 1 1 1 1
gene 2 1762 2 0.0 0 1 0 1
node 1763 1 1 1 1
gene 2 1763 2 0.0 0 1 0 1
node 1764 1 1 1 1
gene 2 1764 2 0.0 0 1 0 1
node 1765 1 1 1 1
gene 2 1765 2 0.0 0 1 0 1
node 1766 1 1 1 1
gene 2 1766 2 0.0 0 1 0 1
node 1767 1 1 1 1
gene 2 1767 2 0.0 0 1 0 1
node 1768 1 1 1 1
gene 2 1768 2 0.0 0 1 0 1
node 1769 1 1 1 1
gene 2 1769 2 0.0 0 1 0 1
node 1770 1 1 1 1
gene 2 1770 2 0.0 0 1 0 1
node 1771 1 1 1 1
gene 2 1771 2 0.0 0 1 0 1
node 1772 1 1 1 1
gene 2 1772 2 0.0 0 1 0 1
node 1773 1 1 1 1
gene 2 1773 2 0.0 0 1 0 1
node 1774 1 1 1 1
gene 2 1774 2 0.0 0 1 0 1
node 1775 1 1 1 1
gene 2 1775 2 0.0 0 1 0 1
node 1776 1 1 1 1
gene 2 1776 2 0.0 0 1 0 1
node 1777 1 1 1 1
gene 2 1777 2 0.0 0 1 0 1
node 1778 1 1 1 1
gene 2 1778 2 0.0 0 1 0 1
node 1779 1 1 1 1
gene 2 1779 2 0.0 0 1 0 1
node 1780 1 1 1 1
gene 2 1780 2 0.0 0 1 0 1
node 1781 1 1 1 1
gene 2 1781 2 0.0 0 1 0 1
node 1782 1 1 1 1
gene 2 1782 2 0.0 0 1 0 1
node 1783 1 1 1 1
gene 2 1783 2 0.0 0 1 0 1
node 1784 1 1 1 1
gene 2 1784 2 0.0 0 1 0 1
node 1785 1 1 1 1
gene 2 1785 2 0.0 0 1 0 1
node 1786 1 1 1 1
gene 2 1786 2 0.0 0 1 0 1
node 1787 1 1 1 1
gene 2 1787 2 0.0 0 1 0 1
node 1788 1 1 1 1
gene 2 1788 2 0.0 0 1 0 1
node 1789 1 1 1 1
gene 2 1789 2 0.0 0 1 0 1
node 1790 1 1 1 1
gene 2 1790 2 0.0 0 1 0 1
node 1791 1 1 1 1
gene 2 1791 2 0.0 0 1 0 1
node 1792 1 1 1 1
gene 2 1792 2 0.0 0 1 0 1
node 1793 1 1 1 1
gene 2 1793 2 0.0 0 1 0 1
node 1794 1 1 1 1
gene 2 1794 2 0.0 0 1 0 1
node 1795 1 1 1 1
gene 2 1795 2 0.0 0 1 0 1
node 1796 1 1 1 1
gene 2 1796 2 0.0 0 1 0 1
node 1797 1 1 1 1
gene 2 1797 2 0.0 0 1 0 1
node 1798 1 1 1 1
gene 2 1798 2 0.0 0 1 0 1
node 1799 1 1 1 1
gene 2 1799 2 0.0 0 1 0 1
node 1800 1 1 1 1
gene 2 1800 2 0.0 0 1 0 1
node 1801 1 1 1 1
gene 2 1801 2 0.0 0 1 0 1
node 1802 1 1 1 1
gene 2 1802 2 0.0 0 1 0 1
node 1803 1 1 1 1
gene 2 1803 2 0.0 0 1 0 1
node 1804 1 1 1 1
gene 2 1804 2 0.0 0 1 0 1
node 1805 1 1 1 1
gene 2 1805 2 0.0 0 1 0 1
node 1806 1 1 1 1
gene 2 1806 2 0.0 0 1 0 1
node 1807 1 1 1 1
gene 2 1807 2 0.0 0 1 0 1
node 1808 1 1 1 1
gene 2 1808 2 0.0 0 1 0 1
node 1809 1 1 1 1
gene 2 1809 2 0.0 0 1 0 1
node 1810 1 1 1 1
gene 2 1810 2 0.0 0 1 0 1
node 1811 1 1 1 1
gene 2 1811 2 0.0 0 1 0 1
node 1812 1 1 1 1
gene 2 1812 2 0.0 0 1 0 1
node 1813 1 1 1 1
gene 2 1813 2 0.0 0 1 0 1
node 1814 1 1 1 1
gene 2 1814 2 0.0 0 1 0 1
node 1815 1 1 1 1
gene 2 1815 2 0.0 0 1 0 1
node 1816 1 1 1 1
gene 2 1816 2 0.0 0 1 0 1
node 1817 1 1 1 1
gene 2 1817 2 0.0 0 1 0 1
node 1818 1 1 1 1
gene 2 1818 2 0.0 0 1 0 1
node 1819 1 1 1 1
gene 2 1819 2 0.0 0 1 0 1
node 1820 1 1 1 1
gene 2 1820 2 0.0 0 1 0 1
node 1821 1 1 1 1
gene 2 1821 2 0.0 0 1 0 1
node 1822 1 1 1 1
gene 2 1822 2 0.0 0 1 0 1
node 1823 1 1 1 1
gene 2 1823 2 0.0 0 1 0 1
node 1824 1 1 1 1
gene 2 1824 2 0.0 0 1 0 1
node 1825 1 1 1 1
gene 2 1825 2 0.0 0 1 0 1
node 1826 1 1 1 1
gene 2 1826 2 0.0 0 1 0 1
node 1827 1 1 1 1
gene 2 1827 2 0.0 0 1 0 1
node 1828 1 1 1 1
gene 2 1828 2 0.0 0 1 0 1
node 1829 1 1 1 1
gene 2 1829 2 0.0 0 1 0 1
node 1830 1 1 1 1
gene 2 1830 2 0.0 0 1 0 1
node 1831 1 1 1 1
gene 2 1831 2 0.0 0 1 0 1
node 1832 1 1 1 1
gene 2 1832 2 0.0 0 1 0 1
node 1833 1 1 1 1
gene 2 1833 2 0.0 0 1 0 1
node 1834 1 1 1 1
gene 2 1834 2 0.0 0 1 0 1
node 1835 1 1 1 1
gene 2 1835 2 0.0 0 1 0 1
node 1836 1 1 1 1
gene 2 1836 2 0.0 0 1 0 1
node 1837 1 1 1 1
gene 2 1837 2 0.0 0 1 0 1
node 1838 1 1 1 1
gene 2 1838 2 0.0 0 1 0 1
node 1839 1 1 1 1
gene 2 1839 2 0.0 0 1 0 1
node 1840 1 1 1 1
gene 2 1840 2 0.0 0 1 0 1
node 1841 1 1 1 1
gene 2 1841 2 0.0 0 1 0 1
node 1842 1 1 1 1
gene 2 1842 2 0.0 0 1 0 1
node 1843 1 1 1 1
gene 2 1843 2 0.0 0 1 0 1
node 1844 1 1 1 1
gene 2 1844 2 0.0 0 1 0 1
node 1845 1 1 1 1
gene 2 1845 2 0.0 0 1 0 1
node 1846 1 1 1 1
gene 2 1846 2 0.0 0 1 0 1
node 1847 1 1 1 1
gene 2 1847 2 0.0 0 1 0 1
node 1848 1 1 1 1
gene 2 1848 2 0.0 0 1 0 1
node 1849 1 1 1 1
gene 2 1849 2 0.0 0 1 0 1
node 1850 1 1 1 1
gene 2 1850 2 0.0 0 1 0 1
node 1851 1 1 1 1
gene 2 1851 2 0.0 0 1 0 1
node 1852 1 1 1 1
gene 2 1852 2 0.0 0 1 0 1
node 1853 1 1 1 1
gene 2 1853 2 0.0 0 1 0 1
node 1854 1 1 1 1
gene 2 1854 2 0.0 0 1 0 1
node 1855 1 1 1 1
gene 2 1855 2 0.0 0 1 0 1
node 1856 1 1 1 1
gene 2 1856 2 0.0 0 1 0 1
node 1857 1 1 1 1
gene 2 1857 2 0.0 0 1 0 1
node 1858 1 1 1 1
gene 2 1858 2 0.0 0 1 0 1
node 1859 1 1 1 1
gene 2 1859 2 0.0 0 1 0 1
node 1860 1 1 1 1
gene 2 1860 2 0.0 0 1 0 1
node 1861 1 1 1 1
gene 2 1861 2 0.0 0 1 0 1
node 1862 1 1 1 1
gene 2 1862 2 0.0 0 1 0 1
node 1863 1 1 1 1
gene 2 1863 2 0.0 0 1 0 1
node 1864 1 1 1 1
gene 2 1864 2 0.0 0 1 0 1
node 1865 1 1 1 1
gene 2 1865 2 0.0 0 1 0 1
node 1866 1 1 1 1
gene 2 1866 2 0.0 0 1 0 1
node 1867 1 1 1 1
gene 2 1867 2 0.0 0 1 0 1
node 1868 1 1 1 1
gene 2 1868 2 0.0 0 1 0 1
node 1869 1 1 1 1
gene 2 1869 2 0.0 0 1 0 1
node 1870 1 1 1 1
gene 2 1870 2 0.0 0 1 0 1
node 1871 1 1 1 1
gene 2 1871 2 0.0 0 1 0 1
node 1872 1 1 1 1
gene 2 1872 2 0.0 0 1 0 1
node 1873 1 1 1 1
gene 2 1873 2 0.0 0 1 0 1
node 1874 1 1 1 1
gene 2 1874 2 0.0 0 1 0 1
node 1875 1 1 1 1
gene 2 1875 2 0.0 0 1 0 1
node 1876 1 1 1 1
gene 2 1876 2 0.0 0 1 0 1
node 1877 1 1 1 1
gene 2 1877 2 0.0 0 1 0 1
node 1878 1 1 1 1
gene 2 1878 2 0.0 0 1 0 1
node 1879 1 1 1 1
gene 2 1879 2 0.0 0 1 0 1
node 1880 1 1 1 1
gene 2 1880 2 0.0 0 1 0 1
node 1881 1 1 1 1
gene 2 1881 2 0.0 0 1 0 1
node 1882 1 1 1 1
gene 2 1882 2 0.0 0 1 0 1
node 1883 1 1 1 1
gene 2 1883 2 0.0 0 1 0 1
node 1884 1 1 1 1
gene 2 1884 2 0.0 0 1 0 1
node 1885 1 1 1 1
gene 2 1885 2 0.0 0 1 0 1
node 1886 1 1 1 1
gene 2 1886 2 0.0 0 1 0 1
node 1887 1 1 1 1
gene 2 1887 2 0.0 0 1 0 1
node 1888 1 1 1 1
gene 2 1888 2 0.0 0 1 0 1
node 1889 1 1 1 1
gene 2 1889 2 0.0 0 1 0 1
node 1890 1 1 1 1
gene 2 1890 2 0.0 0 1 0 1
node 1891 1 1 1 1
gene 2 1891 2 0.0 0 1 0 1
node 1892 1 1 1 1
gene 2 1892 2 0.0 0 1 0 1
node 1893 1 1 1 1
gene 2 1893 2 0.0 0 1 0 1
node 1894 1 1 1 1
gene 2 1894 2 0.0 0 1 0 1
node 1895 1 1 1 1
gene 2 1895 2 0.0 0 1 0 1
node 1896 1 1 1 1
gene 2 1896 2 0.0 0 1 0 1
node 1897 1 1 1 1
gene 2 1897 2 0.0 0 1 0 1
node 1898 1 1 1 1
gene 2 1898 2 0.0 0 1 0 1
node 1899 1 1 1 1
gene 2 1899 2 0.0 0 1 0 1
node 1900 1 1 1 1
gene 2 1900 2 0.0 0 1 0 1
node 1901 1 1 1 1
gene 2 1901 2 0.0 0 1 0 1
node 1902 1 1 1 1
gene 2 1902 2 0.0 0 1 0 1
node 1903 1 1 1 1
gene 2 1903 2 0.0 0 1 0 1
node 1904 1 1 1 1
gene 2 1904 2 0.0 0 1 0 1
node 1905 1 1 1 1
gene 2 1905 2 0.0 0 1 0 1
node 1906 1 1 1 1
gene 2 1906 2 0.0 0 1 0 1
node 1907 1 1 1 1
gene 2 1907 2 0.0 0 1 0 1
node 1908 1 1 1 1
gene 2 1908 2 0.0 0 1 0 1
node 1909 1 1 1 1
gene 2 1909 2 0.0 0 1 0 1
node 1910 1 1 1 1
gene 2 1910 2 0.0 0 1 0 1
node 1911 1 1 1 1
gene 2 1911 2 0.0 0 1 0 1
node 1912 1 1 1 1
gene 2 1912 2 0.0 0 1 0 1
node 1913 1 1 1 1
gene 2 1913 2 0.0 0 1 0 1
node 1914 1 1 1 1
gene 2 1914 2 0.0 0 1 0 1
node 1915 1 1 1 1
gene 2 1915 2 0.0 0 1 0 1
node 1916 1 1 1 1
gene 2 1916 2 0.0 0 1 0 1
node 1917 1 1 1 1
gene 2 1917 2 0.0 0 1 0 1
node 1918 1 1 1 1
gene 2 1918 2 0.0 0 1 0 1
node 1919 1 1 1 1
gene 2 1919 2 0.0 0 1 0 1
node 1920 1 1 1 1
gene 2 1920 2 0.0 0 1 0 1
node 1921 1 1 1 1
gene 2 1921 2 0.0 0 1 0 1
node 1922 1 1 1 1
gene 2 1922 2 0.0 0 1 0 1
node 1923 1 1 1 1
gene 2 1923 2 0.0 0 1 0 1
node 1924 1 1 1 1
gene 2 1924 2 0.0 0 1 0 1
node 1925 1 1 1 1
gene 2 1925 2 0.0 0 1 0 1
node 1926 1 1 1 1
gene 2 1926 2 0.0 0 1 0 1
node 1927 1 1 1 1
gene 2 1927 2 0.0 0 1 0 1
node 1928 1 1 1 1
gene 2 1928 2 0.0 0 1 0 1
node 1929 1 1 1 1
gene 2 1929 2 0.0 0 1 0 1
node 1930 1 1 1 1
gene 2 1930 2 0.0 0 1 0 1
node 1931 1 1 1 1
gene 2 1931 2 0.0 0 1 0 1
node 1932 1 1 1 1
gene 2 1932 2 0.0 0 1 0 1
node 1933 1 1 1 1
gene 2 1933 2 0.0 0 1 0 1
node 1934 1 1 1 1
gene 2 1934 2 0.0 0 1 0 1
node 1935 1 1 1 1
gene 2 1935 2 0.0 0 1 0 1
node 1936 1 1 1 1
gene 2 1936 2 0.0 0 1 0 1
node 1937 1 1 1 1
gene 2 1937 2 0.0 0 1 0 1
node 1938 1 1 1 1
gene 2 1938 2 0.0 0 1 0 1
node 1939 1 1 1 1
gene 2 1939 2 0.0 0 1 0 1
node 1940 1 1 1 1
gene 2 1940 2 0.0 0 1 0 1
node 1941 1 1 1 1
gene 2 1941 2 0.0 0 1 0 1
node 1942 1 1 1 1
gene 2 1942 2 0.0 0 1 0 1
node 1943 1 1 1 1
gene 2 1943 2 0.0 0 1 0 1
node 1944 1 1 1 1
gene 2 1944 2 0.0 0 1 0 1
node 1945 1 1 1 1
gene 2 1945 2 0.0 0 1 0 1
node 1946 1 1 1 1
gene 2 1946 2 0.0 0 1 0 1
node 1947 1 1 1 1
gene 2 1947 2 0.0 0 1 0 1
node 1948 1 1 1 1
gene 2 1948 2 0.0 0 1 0 1
node 1949 1 1 1 1
gene 2 1949 2 0.0 0 1 0 1
node 1950 1 1 1 1
gene 2 1950 2 0.0 0 1 0 1
node 1951 1 1 1 1
gene 2 1951 2 0.0 0 1 0 1
node 1952 1 1 1 1
gene 2 1952 2 0.0 0 1 0 1
node 1953 1 1 1 1
gene 2 1953 2 0.0 0 1 0 1
node 1954 1 1 1 1
gene 2 1954 2 0.0 0 1 0 1
node 1955 1 1 1 1
gene 2 1955 2 0.0 0 1 0 1
node 1956 1 1 1 1
gene 2 1956 2 0.0 0 1 0 1
node 1957 1 1 1 1
gene 2 1957 2 0.0 0 1 0 1
node 1958 1 1 1 1
gene 2 1958 2 0.0 0 1 0 1
node 1959 1 1 1 1
gene 2 1959 2 0.0 0 1 0 1
node 1960 1 1 1 1
gene 2 1960 2 0.0 0 1 0 1
node 1961 1 1 1 1
gene 2 1961 2 0.0 0 1 0 1
node 1962 1 1 1 1
gene 2 1962 2 0.0 0 1 0 1
node 1963 1 1 1 1
gene 2 1963 2 0.0 0 1 0 1
node 1964 1 1 1 1
gene 2 1964 2 0.0 0 1 0 1
node 1965 1 1 1 1
gene 2 1965 2 0.0 0 1 0 1
node 1966 1 1 1 1
gene 2 1966 2 0.0 0 1 0 1
node 1967 1 1 1 1
gene 2 1967 2 0.0 0 1 0 1
node 1968 1 1 1 1
gene 2 1968 2 0.0 0 1 0 1
node 1969 1 1 1 1
gene 2 1969 2 0.0 0 1 0 1
node 1970 1 1 1 1
gene 2 1970 2 0.0 0 1 0 1
node 1971 1 1 1 1
gene 2 1971 2 0.0 0 1 0 1
node 1972 1 1 1 1
gene 2 1972 2 0.0 0 1 0 1
node 1973 1 1 1 1
gene 2 1973 2 0.0 0 1 0 1
node 1974 1 1 1 1
gene 2 1974 2 0.0 0 1 0 1
node 1975 1 1 1 1
gene 2 1975 2 0.0 0 1 0 1
node 1976 1 1 1 1
gene 2 1976 2 0.0 0 1 0 1
node 1977 1 1 1 1
gene 2 1977 2 0.0 0 1 0 1
node 1978 1 1 1 1
gene 2 1978 2 0.0 0 1 0 1
node 1979 1 1 1 1
gene 2 1979 2 0.0 0 1 0 1
node 1980 1 1 1 1
gene 2 1980 2 0.0 0 1 0 1
node 1981 1 1 1 1
gene 2 1981 2 0.0 0 1 0 1
node 1982 1 1 1 1
gene 2 1982 2 0.0 0 1 0 1
node 1983 1 1 1 1
gene 2 1983 2 0.0 0 1 0 1
node 1984 1 1 1 1
gene 2 1984 2 0.0 0 1 0 1
node 1985 1 1 1 1
gene 2 1985 2 0.0 0 1 0 1
node 1986 1 1 1 1
gene 2 1986 2 0.0 0 1 0 1
node 1987 1 1 1 1
gene 2 1987 2 0.0 0 1 0 1
node 1988 1 1 1 1
gene 2 1988 2 0.0 0 1 0 1
node 1989 1 1 1 1
gene 2 1989 2 0.0 0 1 0 1
node 1990 1 1 1 1
gene 2 1990 2 0.0 0 1 0 1
node 1991 1 1 1 1
gene 2 1991 2 0.0 0 1 0 1
node 1992 1 1 1 1
gene 2 1992 2 0.0 0 1 0 1
node 1993 1 1 1 1
gene 2 1993 2 0.0 0 1 0 1
node 1994 1 1 1 1
gene 2 1994 2 0.0 0 1 0 1
node 1995 1 1 1 1
gene 2 1995 2 0.0 0 1 0 1
node 1996 1 1 1 1
gene 2 1996 2 0.0 0 1 0 1
node 1997 1 1 1 1
gene 2 1997 2 0.0 0 1 0 1
node 1998 1 1 1 1
gene 2 1998 2 0.0 0 1 0 1
node 1999 1 1 1 1
gene 2 1999 2 0.0 0 1 0 1
node 2000 1 1 1 1
gene 2 2000 2 0.0 0 1 0 1
node 2001 1 1 1 1
gene 2 2001 2 0.0 0 1 0 1
node 2002 1 1 1 1
gene 2 2002 2 0.0 0 1 0 1
node 2003 1 1 1 1
gene 2 2003 2 0.0 0 1 0 1
node 2004 1 1 1 1
gene 2 2004 2 0.0 0 1 0 1
node 2005 1 1 1 1
gene 2 2005 2 0.0 0 1 0 1
node 2006 1 1 1 1
gene 2 2006 2 0.0 0 1 0 1
node 2007 1 1 1 1
gene 2 2007 2 0.0 0 1 0 1
node 2008 1 1 1 1
gene 2 2008 2 0.0 0 1 0 1
node 2009 1 1 1 1
gene 2 2009 2 0.0 0 1 0 1
node 2010 1 1 1 1
gene 2 2010 2 0.0 0 1 0 1
node 2011 1 1 1 1
gene 2 2011 2 0.0 0 1 0 1
node 2012 1 1 1 1
gene 2 2012 2 0.0 0 1 0 1
node 2013 1 1 1 1
gene 2 2013 2 0.0 0 1 0 1
node 2014 1 1 1 1
gene 2 2014 2 0.0 0 1 0 1
node 2015 1 1 1 1
gene 2 2015 2 0.0 0 1 0 1
node 2016 1 1 1 1
gene 2 2016 2 0.0 0 1 0 1
node 2017 1 1 1 1
gene 2 2017 2 0.0 0 1 0 1
node 2018 1 1 1 1
gene 2 2018 2 0.0 0 1 0 1
node 2019 1 1 1 1
gene 2 2019 2 0.0 0 1 0 1
node 2020 1 1 1 1
gene 2 2020 2 0.0 0 1 0 1
node 2021 1 1 1 1
gene 2 2021 2 0.0 0 1 0 1
node 2022 1 1 1 1
gene 2 2022 2 0.0 0 1 0 1
node 2023 1 1 1 1
gene 2 2023 2 0.0 0 1 0 1
node 2024 1 1 1 1
gene 2 2024 2 0.0 0 1 0 1
node 2025 1 1 1 1
gene 2 2025 2 0.0 0 1 0 1
node 2026 1 1 1 1
gene 2 2026 2 0.0 0 1 0 1
node 2027 1 1 1 1
gene 2 2027 2 0.0 0 1 0 1
node 2028 1 1 1 1
gene 2 2028 2 0.0 0 1 0 1
node 2029 1 1 1 1
gene 2 2029 2 0.0 0 1 0 1
node 2030 1 1 1 1
gene 2 2030 2 0.0 0 1 0 1
node 2031 1 1 1 1
gene 2 2031 2 0.0 0 1 0 1
node 2032 1 1 1 1
gene 2 2032 2 0.0 0 1 0 1
node 2033 1 1 1 1
gene 2 2033 2 0.0 0 1 0 1
node 2034 1 1 1 1
gene 2 2034 2 0.0 0 1 0 1
node 2035 1 1 1 1
gene 2 2035 2 0.0 0 1 0 1
node 2036 1 1 1 1
gene 2 2036 2 0.0 0 1 0 1
node 2037 1 1 1 1
gene 2 2037 2 0.0 0 1 0 1
node 2038 1 1 1 1
gene 2 2038 2 0.0 0 1 0 1
node 2039 1 1 1 1
gene 2 2039 2 0.0 0 1 0 1
node 2040 1 1 1 1
gene 2 2040 2 0.0 0 1 0 1
node 2041 1 1 1 1
gene 2 2041 2 0.0 0 1 0 1
node 2042 1 1 1 1
gene 2 2042 2 0.0 0 1 0 1
node 2043 1 1 1 1
gene 2 2043 2 0.0 0 1 0 1
node 2044 1 1 1 1
gene 2 2044 2 0.0 0 1 0 1
node 2045 1 1 1 1
gene 2 2045 2 0.0 0 1 0 1
node 2046 1 1 1 1
gene 2 2046 2 0.0 0 1 0 1
node 2047 1 1 1 1
gene 2 2047 2 0.0 0 1 0 1
node 2048 1 1 1 1
gene 2 2048 2 0.0 0 1 0 1
node 2049 1 1 1 1
gene 2 2049 2 0.0 0 1 0 1
node 2050 1 1 1 1
gene 2 2050 2 0.0 0 1 0 1
node 2051 1 1 1 1
gene 2 2051 2 0.0 0 1 0 1
node 2052 1 1 1 1
gene 2 2052 2 0.0 0 1 0 1
node 2053 1 1 1 1
gene 2 2053 2 0.0 0 1 0 1
node 2054 1 1 1 1
gene 2 2054 2 0.0 0 1 0 1
node 2055 1 1 1 1
gene 2 2055 2 0.0 0 1 0 1
node 2056 1 1 1 1
gene 2 2056 2 0.0 0 1 0 1
node 2057 1 1 1 1
gene 2 2057 2 0.0 0 1 0 1
node 2058 1 1 1 1
gene 2 2058 2 0.0 0 1 0 1
node 2059 1 1 1 1
gene 2 2059 2 0.0 0 1 0 1
node 2060 1 1 1 1
gene 2 2060 2 0.0 0 1 0 1
node 2061 1 1 1 1
gene 2 2061 2 0.0 0 1 0 1
node 2062 1 1 1 1
gene 2 2062 2 0.0 0 1 0 1
node 2063 1 1 1 1
gene 2 2063 2 0.0 0 1 0 1
node 2064 1 1 1 1
gene 2 2064 2 0.0 0 1 0 1
node 2065 1 1 1 1
gene 2 2065 2 0.0 0 1 0 1
node 2066 1 1 1 1
gene 2 2066 2 0.0 0 1 0 1
node 2067 1 1 1 1
gene 2 2067 2 0.0 0 1 0 1
node 2068 1 1 1 1
gene 2 2068 2 0.0 0 1 0 1
node 2069 1 1 1 1
gene 2 2069 2 0.0 0 1 0 1
node 2070 1 1 1 1
gene 2 2070 2 0.0 0 1 0 1
node 2071 1 1 1 1
gene 2 2071 2 0.0 0 1 0 1
node 2072 1 1 1 1
gene 2 2072 2 0.0 0 1 0 1
node 2073 1 1 1 1
gene 2 2073 2 0.0 0 1 0 1
node 2074 1 1 1 1
gene 2 2074 2 0.0 0 1 0 1
node 2075 1 1 1 1
gene 2 2075 2 0.0 0 1 0 1
node 2076 1 1 1 1
gene 2 2076 2 0.0 0 1 0 1
node 2077 1 1 1 1
gene 2 2077 2 0.0 0 1 0 1
node 2078 1 1 1 1
gene 2 2078 2 0.0 0 1 0 1
node 2079 1 1 1 1
gene 2 2079 2 0.0 0 1 0 1
node 2080 1 1 1 1
gene 2 2080 2 0.0 0 1 0 1
node 2081 1 1 1 1
gene 2 2081 2 0.0 0 1 0 1
node 2082 1 1 1 1
gene 2 2082 2 0.0 0 1 0 1
node 2083 1 1 1 1
gene 2 2083 2 0.0 0 1 0 1
node 2084 1 1 1 1
gene 2 2084 2 0.0 0 1 0 1
node 2085 1 1 1 1
gene 2 2085 2 0.0 0 1 0 1
node 2086 1 1 1 1
gene 2 2086 2 0.0 0 1 0 1
node 2087 1 1 1 1
gene 2 2087 2 0.0 0 1 0 1
node 2088 1 1 1 1
gene 2 2088 2 0.0 0 1 0 1
node 2089 1 1 1 1
gene 2 2089 2 0.0 0 1 0 1
node 2090 1 1 1 1
gene 2 2090 2 0.0 0 1 0 1
node 2091 1 1 1 1
gene 2 2091 2 0.0 0 1 0 1
node 2092 1 1 1 1
gene 2 2092 2 0.0 0 1 0 1
node 2093 1 1 1 1
gene 2 2093 2 0.0 0 1 0 1
node 2094 1 1 1 1
gene 2 2094 2 0.0 0 1 0 1
node 2095 1 1 1 1
gene 2 2095 2 0.0 0 1 0 1
node 2096 1 1 1 1
gene 2 2096 2 0.0 0 1 0 1
node 2097 1 1 1 1
gene 2 2097 2 0.0 0 1 0 1
node 2098 1 1 1 1
gene 2 2098 2 0.0 0 1 0 1
node 2099 1 1 1 1
gene 2 2099 2 0.0 0 1 0 1
node 2100 1 1 1 1
gene 2 2100 2 0.0 0 1 0 1
node 2101 1 1 1 1
gene 2 2101 2 0.0 0 1 0 1
node 2102 1 1 1 1
gene 2 2102 2 0.0 0 1 0 1
node 2103 1 1 1 1
gene 2 2103 2 0.0 0 1 0 1
node 2104 1 1 1 1
gene 2 2104 2 0.0 0 1 0 1
node 2105 1 1 1 1
gene 2 2105 2 0.0 0 1 0 1
node 2106 1 1 1 1
gene 2 2106 2 0.0 0 1 0 1
node 2107 1 1 1 1
gene 2 2107 2 0.0 0 1 0 1
node 2108 1 1 1 1
gene 2 2108 2 0.0 0 1 0 1
node 2109 1 1 1 1
gene 2 2109 2 0.0 0 1 0 1
node 2110 1 1 1 1
gene 2 2110 2 0.0 0 1 0 1
node 2111 1 1 1 1
gene 2 2111 2 0.0 0 1 0 1
node 2112 1 1 1 1
gene 2 2112 2 0.0 0 1 0 1
node 2113 1 1 1 1
gene 2 2113 2 0.0 0 1 0 1
node 2114 1 1 1 1
gene 2 2114 2 0.0 0 1 0 1
node 2115 1 1 1 1
gene 2 2115 2 0.0 0 1 0 1
node 2116 1 1 1 1
gene 2 2116 2 0.0 0 1 0 1
node 2117 1 1 1 1
gene 2 2117 2 0.0 0 1 0 1
node 2118 1 1 1 1
gene 2 2118 2 0.0 0 1 0 1
node 2119 1 1 1 1
gene 2 2119 2 0.0 0 1 0 1
node 2120 1 1 1 1
gene 2 2120 2 0.0 0 1 0 1
node 2121 1 1 1 1
gene 2 2121 2 0.0 0 1 0 1
node 2122 1 1 1 1
gene 2 2122 2 0.0 0 1 0 1
node 2123 1 1 1 1
gene 2 2123 2 0.0 0 1 0 1
node 2124 1 1 1 1
gene 2 2124 2 0.0 0 1 0 1
node 2125 1 1 1 1
gene 2 2125 2 0.0 0 1 0 1
node 2126 1 1 1 1
gene 2 2126 2 0.0 0 1 0 1
node 2127 1 1 1 1
gene 2 2127 2 0.0 0 1 0 1
node 2128 1 1 1 1
gene 2 2128 2 0.0 0 1 0 1
node 2129 1 1 1 1
gene 2 2129 2 0.0 0 1 0 1
node 2130 1 1 1 1
gene 2 2130 2 0.0 0 1 0 1
node 2131 1 1 1 1
gene 2 2131 2 0.0 0 1 0 1
node 2132 1 1 1 1
gene 2 2132 2 0.0 0 1 0 1
node 2133 1 1 1 1
gene 2 2133 2 0.0 0 1 0 1
node 2134 1 1 1 1
gene 2 2134 2 0.0 0 1 0 1
node 2135 1 1 1 1
gene 2 2135 2 0.0 0 1 0 1
node 2136 1 1 1 1
gene 2 2136 2 0.0 0 1 0 1
node 2137 1 1 1 1
gene 2 2137 2 0.0 0 1 0 1
node 2138 1 1 1 1
gene 2 2138 2 0.0 0 1 0 1
node 2139 1 1 1 1
gene 2 2139 2 0.0 0 1 0 1
node 2140 1 1 1 1
gene 2 2140 2 0.0 0 1 0 1
node 2141 1 1 1 1
gene 2 2141 2 0.0 0 1 0 1
node 2142 1 1 1 1
gene 2 2142 2 0.0 0 1 0 1
node 2143 1 1 1 1
gene 2 2143 2 0.0 0 1 0 1
node 2144 1 1 1 1
gene 2 2144 2 0.0 0 1 0 1
node 2145 1 1 1 1
gene 2 2145 2 0.0 0 1 0 1
node 2146 1 1 1 1
gene 2 2146 2 0.0 0 1 0 1
node 2147 1 1 1 1
gene 2 2147 2 0.0 0 1 0 1
node 2148 1 1 1 1
gene 2 2148 2 0.0 0 1 0 1
node 2149 1 1 1 1
gene 2 2149 2 0.0 0 1 0 1
node 2150 1 1 1 1
gene 2 2150 2 0.0 0 1 0 1
node 2151 1 1 1 1
gene 2 2151 2 0.0 0 1 0 1
node 2152 1 1 1 1
gene 2 2152 2 0.0 0 1 0 1
node 2153 1 1 1 1
gene 2 2153 2 0.0 0 1 0 1
node 2154 1 1 1 1
gene 2 2154 2 0.0 0 1 0 1
node 2155 1 1 1 1
gene 2 2155 2 0.0 0 1 0 1
node 2156 1 1 1 1
gene 2 2156 2 0.0 0 1 0 1
node 2157 1 1 1 1
gene 2 2157 2 0.0 0 1 0 1
node 2158 1 1 1 1
gene 2 2158 2 0.0 0 1 0 1
node 2159 1 1 1 1
gene 2 2159 2 0.0 0 1 0 1
node 2160 1 1 1 1
gene 2 2160 2 0.0 0 1 0 1
node 2161 1 1 1 1
gene 2 2161 2 0.0 0 1 0 1
node 2162 1 1 1 1
gene 2 2162 2 0.0 0 1 0 1
node 2163 1 1 1 1
gene 2 2163 2 0.0 0 1 0 1
node 2164 1 1 1 1
gene 2 2164 2 0.0 0 1 0 1
node 2165 1 1 1 1
gene 2 2165 2 0.0 0 1 0 1
node 2166 1 1 1 1
gene 2 2166 2 0.0 0 1 0 1
node 2167 1 1 1 1
gene 2 2167 2 0.0 0 1 0 1
node 2168 1 1 1 1
gene 2 2168 2 0.0 0 1 0 1
node 2169 1 1 1 1
gene 2 2169 2 0.0 0 1 0 1
node 2170 1 1 1 1
gene 2 2170 2 0.0 0 1 0 1
node 2171 1 1 1 1
gene 2 2171 2 0.0 0 1 0 1
node 2172 1 1 1 1
gene 2 2172 2 0.0 0 1 0 1
node 2173 1 1 1 1
gene 2 2173 2 0.0 0 1 0 1
node 2174 1 1 1 1
gene 2 2174 2 0.0 0 1 0 1
node 2175 1 1 1 1
gene 2 2175 2 0.0 0 1 0 1
node 2176 1 1 1 1
gene 2 2176 2 0.0 0 1 0 1
node 2177 1 1 1 1
gene 2 2177 2 0.0 0 1 0 1
node 2178 1 1 1 1
gene 2 2178 2 0.0 0 1 0 1
node 2179 1 1 1 1
gene 2 2179 2 0.0 0 1 0 1
node 2180 1 1 1 1
gene 2 2180 2 0.0 0 1 0 1
node 2181 1 1 1 1
gene 2 2181 2 0.0 0 1 0 1
node 2182 1 1 1 1
gene 2 2182 2 0.0 0 1 0 1
node 2183 1 1 1 1
gene 2 2183 2 0.0 0 1 0 1
node 2184 1 1 1 1
gene 2 2184 2 0.0 0 1 0 1
node 2185 1 1 1 1
gene 2 2185 2 0.0 0 1 0 1
node 2186 1 1 1 1
gene 2 2186 2 0.0 0 1 0 1
node 2187 1 1 1 1
gene 2 2187 2 0.0 0 1 0 1
node 2188 1 1 1 1
gene 2 2188 2 0.0 0 1 0 1
node 2189 1 1 1 1
gene 2 2189 2 0.0 0 1 0 1
node 2190 1 1 1 1
gene 2 2190 2 0.0 0 1 0 1
node 2191 1 1 1 1
gene 2 2191 2 0.0 0 1 0 1
node 2192 1 1 1 1
gene 2 2192 2 0.0 0 1 0 1
node 2193 1 1 1 1
gene 2 2193 2 0.0 0 1 0 1
node 2194 1 1 1 1
gene 2 2194 2 0.0 0 1 0 1
node 2195 1 1 1 1
gene 2 2195 2 0.0 0 1 0 1
node 2196 1 1 1 1
gene 2 2196 2 0.0 0 1 0 1
node 2197 1 1 1 1
gene 2 2197 2 0.0 0 1 0 1
node 2198 1 1 1 1
gene 2 2198 2 0.0 0 1 0 1
node 2199 1 1 1 1
gene 2 2199 2 0.0 0 1 0 1
node 2200 1 1 1 1
gene 2 2200 2 0.0 0 1 0 1
node 2201 1 1 1 1
gene 2 2201 2 0.0 0 1 0 1
node 2202 1 1 1 1
gene 2 2202 2 0.0 0 1 0 1
node 2203 1 1 1 1
gene 2 2203 2 0.0 0 1 0 1
node 2204 1 1 1 1
gene 2 2204 2 0.0 0 1 0 1
node 2205 1 1 1 1
gene 2 2205 2 0.0 0 1 0 1
node 2206 1 1 1 1
gene 2 2206 2 0.0 0 1 0 1
node 2207 1 1 1 1
gene 2 2207 2 0.0 0 1 0 1
node 2208 1 1 1 1
gene 2 2208 2 0.0 0 1 0 1
node 2209 1 1 1 1
gene 2 2209 2 0.0 0 1 0 1
node 2210 1 1 1 1
gene 2 2210 2 0.0 0 1 0 1
node 2211 1 1 1 1
gene 2 2211 2 0.0 0 1 0 1
node 2212 1 1 1 1
gene 2 2212 2 0.0 0 1 0 1
node 2213 1 1 1 1
gene 2 2213 2 0.0 0 1 0 1
node 2214 1 1 1 1
gene 2 2214 2 0.0 0 1 0 1
node 2215 1 1 1 1
gene 2 2215 2 0.0 0 1 0 1
node 2216 1 1 1 1
gene 2 2216 2 0.0 0 1 0 1
node 2217 1 1 1 1
gene 2 2217 2 0.0 0 1 0 1
node 2218 1 1 1 1
gene 2 2218 2 0.0 0 1 0 1
node 2219 1 1 1 1
gene 2 2219 2 0.0 0 1 0 1
node 2220 1 1 1 1
gene 2 2220 2 0.0 0 1 0 1
node 2221 1 1 1 1
gene 2 2221 2 0.0 0 1 0 1
node 2222 1 1 1 1
gene 2 2222 2 0.0 0 1 0 1
node 2223 1 1 1 1
gene 2 2223 2 0.0 0 1 0 1
node 2224 1 1 1 1
gene 2 2224 2 0.0 0 1 0 1
node 2225 1 1 1 1
gene 2 2225 2 0.0 0 1 0 1
node 2226 1 1 1 1
gene 2 2226 2 0.0 0 1 0 1
node 2227 1 1 1 1
gene 2 2227 2 0.0 0 1 0 1
node 2228 1 1 1 1
gene 2 2228 2 0.0 0 1 0 1
node 2229 1 1 1 1
gene 2 2229 2 0.0 0 1 0 1
node 2230 1 1 1 1
gene 2 2230 2 0.0 0 1 0 1
node 2231 1 1 1 1
gene 2 2231 2 0.0 0 1 0 1
node 2232 1 1 1 1
gene 2 2232 2 0.0 0 1 0 1
node 2233 1 1 1 1
gene 2 2233 2 0.0 0 1 0 1
node 2234 1 1 1 1
gene 2 2234 2 0.0 0 1 0 1
node 2235 1 1 1 1
gene 2 2235 2 0.0 0 1 0 1
node 2236 1 1 1 1
gene 2 2236 2 0.0 0 1 0 1
node 2237 1 1 1 1
gene 2 2237 2 0.0 0 1 0 1
node 2238 1 1 1 1
gene 2 2238 2 0.0 0 1 0 1
node 2239 1 1 1 1
gene 2 2239 2 0.0 0 1 0 1
node 2240 1 1 1 1
gene 2 2240 2 0.0 0 1 0 1
node 2241 1 1 1 1
gene 2 2241 2 0.0 0 1 0 1
node 2242 1 1 1 1
gene 2 2242 2 0.0 0 1 0 1
node 2243 1 1 1 1
gene 2 2243 2 0.0 0 1 0 1
node 2244 1 1 1 1
gene 2 2244 2 0.0 0 1 0 1
node 2245 1 1 1 1
gene 2 2245 2 0.0 0 1 0 1
node 2246 1 1 1 1
gene 2 2246 2 0.0 0 1 0 1
node 2247 1 1 1 1
gene 2 2247 2 0.0 0 1 0 1
node 2248 1 1 1 1
gene 2 2248 2 0.0 0 1 0 1
node 2249 1 1 1 1
gene 2 2249 2 0.0 0 1 0 1
node 2250 1 1 1 1
gene 2 2250 2 0.0 0 1 0 1
node 2251 1 1 1 1
gene 2 2251 2 0.0 0 1 0 1
node 2252 1 1 1 1
gene 2 2252 2 0.0 0 1 0 1
node 2253 1 1 1 1
gene 2 2253 2 0.0 0 1 0 1
node 2254 1 1 1 1
gene 2 2254 2 0.0 0 1 0 1
node 2255 1 1 1 1
gene 2 2255 2 0.0 0 1 0 1
node 2256 1 1 1 1
gene 2 2256 2 0.0 0 1 0 1
node 2257 1 1 1 1
gene 2 2257 2 0.0 0 1 0 1
node 2258 1 1 1 1
gene 2 2258 2 0.0 0 1 0 1
node 2259 1 1 1 1
gene 2 2259 2 0.0 0 1 0 1
node 2260 1 1 1 1
gene 2 2260 2 0.0 0 1 0 1
node 2261 1 1 1 1
gene 2 2261 2 0.0 0 1 0 1
node 2262 1 1 1 1
gene 2 2262 2 0.0 0 1 0 1
node 2263 1 1 1 1
gene 2 2263 2 0.0 0 1 0 1
node 2264 1 1 1 1
gene 2 2264 2 0.0 0 1 0 1
node 2265 1 1 1 1
gene 2 2265 2 0.0 0 1 0 1
node 2266 1 1 1 1
gene 2 2266 2 0.0 0 1 0 1
node 2267 1 1 1 1
gene 2 2267 2 0.0 0 1 0 1
node 2268 1 1 1 1
gene 2 2268 2 0.0 0 1 0 1
node 2269 1 1 1 1
gene 2 2269 2 0.0 0 1 0 1
node 2270 1 1 1 1
gene 2 2270 2 0.0 0 1 0 1
node 2271 1 1 1 1
gene 2 2271 2 0.0 0 1 0 1
node 2272 1 1 1 1
gene 2 2272 2 0.0 0 1 0 1
node 2273 1 1 1 1
gene 2 2273 2 0.0 0 1 0 1
node 2274 1 1 1 1
gene 2 2274 2 0.0 0 1 0 1
node 2275 1 1 1 1
gene 2 2275 2 0.0 0 1 0 1
node 2276 1 1 1 1
gene 2 2276 2 0.0 0 1 0 1
node 2277 1 1 1 1
gene 2 2277 2 0.0 0 1 0 1
node 2278 1 1 1 1
gene 2 2278 2 0.0 0 1 0 1
node 2279 1 1 1 1
gene 2 2279 2 0.0 0 1 0 1
node 2280 1 1 1 1
gene 2 2280 2 0.0 0 1 0 1
node 2281 1 1 1 1
gene 2 2281 2 0.0 0 1 0 1
node 2282 1 1 1 1
gene 2 2282 2 0.0 0 1 0 1
node 2283 1 1 1 1
gene 2 2283 2 0.0 0 1 0 1
node 2284 1 1 1 1
gene 2 2284 2 0.0 0 1 0 1
node 2285 1 1 1 1
gene 2 2285 2 0.0 0 1 0 1
node 2286 1 1 1 1
gene 2 2286 2 0.0 0 1 0 1
node 2287 1 1 1 1
gene 2 2287 2 0.0 0 1 0 1
node 2288 1 1 1 1
gene 2 2288 2 0.0 0 1 0 1
node 2289 1 1 1 1
gene 2 2289 2 0.0 0 1 0 1
node 2290 1 1 1 1
gene 2 2290 2 0.0 0 1 0 1
node 2291 1 1 1 1
gene 2 2291 2 0.0 0 1 0 1
node 2292 1 1 1 1
gene 2 2292 2 0.0 0 1 0 1
node 2293 1 1 1 1
gene 2 2293 2 0.0 0 1 0 1
node 2294 1 1 1 1
gene 2 2294 2 0.0 0 1 0 1
node 2295 1 1 1 1
gene 2 2295 2 0.0 0 1 0 1
node 2296 1 1 1 1
gene 2 2296 2 0.0 0 1 0 1
node 2297 1 1 1 1
gene 2 2297 2 0.0 0 1 0 1
node 2298 1 1 1 1
gene 2 2298 2 0.0 0 1 0 1
node 2299 1 1 1 1
gene 2 2299 2 0.0 0 1 0 1
node 2300 1 1 1 1
gene 2 2300 2 0.0 0 1 0 1
node 2301 1 1 1 1
gene 2 2301 2 0.0 0 1 0 1
node 2302 1 1 1 1
gene 2 2302 2 0.0 0 1 0 1
node 2303 1 1 1 1
gene 2 2303 2 0.0 0 1 0 1
node 2304 1 1 1 1
gene 2 2304 2 0.0 0 1 0 1
node 2305 1 1 1 1
gene 2 2305 2 0.0 0 1 0 1
node 2306 1 1 1 1
gene 2 2306 2 0.0 0 1 0 1
node 2307 1 1 1 1
gene 2 2307 2 0.0 0 1 0 1
node 2308 1 1 1 1
gene 2 2308 2 0.0 0 1 0 1
node 2309 1 1 1 1
gene 2 2309 2 0.0 0 1 0 1
node 2310 1 1 1 1
gene 2 2310 2 0.0 0 1 0 1
node 2311 1 1 1 1
gene 2 2311 2 0.0 0 1 0 1
node 2312 1 1 1 1
gene 2 2312 2 0.0 0 1 0 1
node 2313 1 1 1 1
gene 2 2313 2 0.0 0 1 0 1
node 2314 1 1 1 1
gene 2 2314 2 0.0 0 1 0 1
node 2315 1 1 1 1
gene 2 2315 2 0.0 0 1 0 1
node 2316 1 1 1 1
gene 2 2316 2 0.0 0 1 0 1
node 2317 1 1 1 1
gene 2 2317 2 0.0 0 1 0 1
node 2318 1 1 1 1
gene 2 2318 2 0.0 0 1 0 1
node 2319 1 1 1 1
gene 2 2319 2 0.0 0 1 0 1
node 2320 1 1 1 1
gene 2 2320 2 0.0 0 1 0 1
node 2321 1 1 1 1
gene 2 2321 2 0.0 0 1 0 1
node 2322 1 1 1 1
gene 2 2322 2 0.0 0 1 0 1
node 2323 1 1 1 1
gene 2 2323 2 0.0 0 1 0 1
node 2324 1 1 1 1
gene 2 2324 2 0.0 0 1 0 1
node 2325 1 1 1 1
gene 2 2325 2 0.0 0 1 0 1
node 2326 1 1 1 1
gene 2 2326 2 0.0 0 1 0 1
node 2327 1 1 1 1
gene 2 2327 2 0.0 0 1 0 1
node 2328 1 1 1 1
gene 2 2328 2 0.0 0 1 0 1
node 2329 1 1 1 1
gene 2 2329 2 0.0 0 1 0 1
node 2330 1 1 1 1
gene 2 2330 2 0.0 0 1 0 1
node 2331 1 1 1 1
gene 2 2331 2 0.0 0 1 0 1
node 2332 1 1 1 1
gene 2 2332 2 0.0 0 1 0 1
node 2333 1 1 1 1
gene 2 2333 2 0.0 0 1 0 1
node 2334 1 1 1 1
gene 2 2334 2 0.0 0 1 0 1
node 2335 1 1 1 1
gene 2 2335 2 0.0 0 1 0 1
node 2336 1 1 1 1
gene 2 2336 2 0.0 0 1 0 1
node 2337 1 1 1 1
gene 2 2337 2 0.0 0 1 0 1
node 2338 1 1 1 1
gene 2 2338 2 0.0 0 1 0 1
node 2339 1 1 1 1
gene 2 2339 2 0.0 0 1 0 1
node 2340 1 1 1 1
gene 2 2340 2 0.0 0 1 0 1
node 2341 1 1 1 1
gene 2 2341 2 0.0 0 1 0 1
node 2342 1 1 1 1
gene 2 2342 2 0.0 0 1 0 1
node 2343 1 1 1 1
gene 2 2343 2 0.0 0 1 0 1
node 2344 1 1 1 1
gene 2 2344 2 0.0 0 1 0 1
node 2345 1 1 1 1
gene 2 2345 2 0.0 0 1 0 1
node 2346 1 1 1 1
gene 2 2346 2 0.0 0 1 0 1
node 2347 1 1 1 1
gene 2 2347 2 0.0 0 1 0 1
node 2348 1 1 1 1
gene 2 2348 2 0.0 0 1 0 1
node 2349 1 1 1 1
gene 2 2349 2 0.0 0 1 0 1
node 2350 1 1 1 1
gene 2 2350 2 0.0 0 1 0 1
node 2351 1 1 1 1
gene 2 2351 2 0.0 0 1 0 1
node 2352 1 1 1 1
gene 2 2352 2 0.0 0 1 0 1
node 2353 1 1 1 1
gene 2 2353 2 0.0 0 1 0 1
node 2354 1 1 1 1
gene 2 2354 2 0.0 0 1 0 1
node 2355 1 1 1 1
gene 2 2355 2 0.0 0 1 0 1
node 2356 1 1 1 1
gene 2 2356 2 0.0 0 1 0 1
node 2357 1 1 1 1
gene 2 2357 2 0.0 0 1 0 1
node 2358 1 1 1 1
gene 2 2358 2 0.0 0 1 0 1
node 2359 1 1 1 1
gene 2 2359 2 0.0 0 1 0 1
node 2360 1 1 1 1
gene 2 2360 2 0.0 0 1 0 1
node 2361 1 1 1 1
gene 2 2361 2 0.0 0 1 0 1
node 2362 1 1 1 1
gene 2 2362 2 0.0 0 1 0 1
node 2363 1 1 1 1
gene 2 2363 2 0.0 0 1 0 1
node 2364 1 1 1 1
gene 2 2364 2 0.0 0 1 0 1
node 2365 1 1 1 1
gene 2 2365 2 0.0 0 1 0 1
node 2366 1 1 1 1
gene 2 2366 2 0.0 0 1 0 1
node 2367 1 1 1 1
gene 2 2367 2 0.0 0 1 0 1
node 2368 1 1 1 1
gene 2 2368 2 0.0 0 1 0 1
node 2369 1 1 1 1
gene 2 2369 2 0.0 0 1 0 1
node 2370 1 1 1 1
gene 2 2370 2 0.0 0 1 0 1
node 2371 1 1 1 1
gene 2 2371 2 0.0 0 1 0 1
node 2372 1 1 1 1
gene 2 2372 2 0.0 0 1 0 1
node 2373 1 1 1 1
gene 2 2373 2 0.0 0 1 0 1
node 2374 1 1 1 1
gene 2 2374 2 0.0 0 1 0 1
node 2375 1 1 1 1
gene 2 2375 2 0.0 0 1 0 1
node 2376 1 1 1 1
gene 2 2376 2 0.0 0 1 0 1
node 2377 1 1 1 1
gene 2 2377 2 0.0 0 1 0 1
node 2378 1 1 1 1
gene 2 2378 2 0.0 0 1 0 1
node 2379 1 1 1 1
gene 2 2379 2 0.0 0 1 0 1
node 2380 1 1 1 1
gene 2 2380 2 0.0 0 1 0 1
node 2381 1 1 1 1
gene 2 2381 2 0.0 0 1 0 1
node 2382 1 1 1 1
gene 2 2382 2 0.0 0 1 0 1
node 2383 1 1 1 1
gene 2 2383 2 0.0 0 1 0 1
node 2384 1 1 1 1
gene 2 2384 2 0.0 0 1 0 1
node 2385 1 1 1 1
gene 2 2385 2 0.0 0 1 0 1
node 2386 1 1 1 1
gene 2 2386 2 0.0 0 1 0 1
node 2387 1 1 1 1
gene 2 2387 2 0.0 0 1 0 1
node 2388 1 1 1 1
gene 2 2388 2 0.0 0 1 0 1
node 2389 1 1 1 1
gene 2 2389 2 0.0 0 1 0 1
node 2390 1 1 1 1
gene 2 2390 2 0.0 0 1 0 1
node 2391 1 1 1 1
gene 2 2391 2 0.0 0 1 0 1
node 2392 1 1 1 1
gene 2 2392 2 0.0 0 1 0 1
node 2393 1 1 1 1
gene 2 2393 2 0.0 0 1 0 1
node 2394 1 1 1 1
gene 2 2394 2 0.0 0 1 0 1
node 2395 1 1 1 1
gene 2 2395 2 0.0 0 1 0 1
node 2396 1 1 1 1
gene 2 2396 2 0.0 0 1 0 1
node 2397 1 1 1 1
gene 2 2397 2 0.0 0 1 0 1
node 2398 1 1 1 1
gene 2 2398 2 0.0 0 1 0 1
node 2399 1 1 1 1
gene 2 2399 2 0.0 0 1 0 1
node 2400 1 1 1 1
gene 2 2400 2 0.0 0 1 0 1
node 2401 1 1 1 1
gene 2 2401 2 0.0 0 1 0 1
node 2402 1 1 1 1
gene 2 2402 2 0.0 0 1 0 1
node 2403 1 1 1 1
gene 2 2403 2 0.0 0 1 0 1
node 2404 1 1 1 1
gene 2 2404 2 0.0 0 1 0 1
node 2405 1 1 1 1
gene 2 2405 2 0.0 0 1 0 1
node 2406 1 1 1 1
gene 2 2406 2 0.0 0 1 0 1
node 2407 1 1 1 1
gene 2 2407 2 0.0 0 1 0 1
node 2408 1 1 1 1
gene 2 2408 2 0.0 0 1 0 1
node 2409 1 1 1 1
gene 2 2409 2 0.0 0 1 0 1
node 2410 1 1 1 1
gene 2 2410 2 0.0 0 1 0 1
node 2411 1 1 1 1
gene 2 2411 2 0.0 0 1 0 1
node 2412 1 1 1 1
gene 2 2412 2 0.0 0 1 0 1
node 2413 1 1 1 1
gene 2 2413 2 0.0 0 1 0 1
node 2414 1 1 1 1
gene 2 2414 2 0.0 0 1 0 1
node 2415 1 1 1 1
gene 2 2415 2 0.0 0 1 0 1
node 2416 1 1 1 1
gene 2 2416 2 0.0 0 1 0 1
node 2417 1 1 1 1
gene 2 2417 2 0.0 0 1 0 1
node 2418 1 1 1 1
gene 2 2418 2 0.0 0 1 0 1
node 2419 1 1 1 1
gene 2 2419 2 0.0 0 1 0 1
node 2420 1 1 1 1
gene 2 2420 2 0.0 0 1 0 1
node 2421 1 1 1 1
gene 2 2421 2 0.0 0 1 0 1
node 2422 1 1 1 1
gene 2 2422 2 0.0 0 1 0 1
node 2423 1 1 1 1
gene 2 2423 2 0.0 0 1 0 1
node 2424 1 1 1 1
gene 2 2424 2 0.0 0 1 0 1
node 2425 1 1 1 1
gene 2 2425 2 0.0 0 1 0 1
node 2426 1 1 1 1
gene 2 2426 2 0.0 0 1 0 1
node 2427 1 1 1 1
gene 2 2427 2 0.0 0 1 0 1
node 2428 1 1 1 1
gene 2 2428 2 0.0 0 1 0 1
node 2429 1 1 1 1
gene 2 2429 2 0.0 0 1 0 1
node 2430 1 1 1 1
gene 2 2430 2 0.0 0 1 0 1
node 2431 1 1 1 1
gene 2 2431 2 0.0 0 1 0 1
node 2432 1 1 1 1
gene 2 2432 2 0.0 0 1 0 1
node 2433 1 1 1 1
gene 2 2433 2 0.0 0 1 0 1
node 2434 1 1 1 1
gene 2 2434 2 0.0 0 1 0 1
node 2435 1 1 1 1
gene 2 2435 2 0.0 0 1 0 1
node 2436 1 1 1 1
gene 2 2436 2 0.0 0 1 0 1
node 2437 1 1 1 1
gene 2 2437 2 0.0 0 1 0 1
node 2438 1 1 1 1
gene 2 2438 2 0.0 0 1 0 1
node 2439 1 1 1 1
gene 2 2439 2 0.0 0 1 0 1
node 2440 1 1 1 1
gene 2 2440 2 0.0 0 1 0 1
node 2441 1 1 1 1
gene 2 2441 2 0.0 0 1 0 1
node 2442 1 1 1 1
gene 2 2442 2 0.0 0 1 0 1
node 2443 1 1 1 1
gene 2 2443 2 0.0 0 1 0 1
node 2444 1 1 1 1
gene 2 2444 2 0.0 0 1 0 1
node 2445 1 1 1 1
gene 2 2445 2 0.0 0 1 0 1
node 2446 1 1 1 1
gene 2 2446 2 0.0 0 1 0 1
node 2447 1 1 1 1
gene 2 2447 2 0.0 0 1 0 1
node 2448 1 1 1 1
gene 2 2448 2 0.0 0 1 0 1
node 2449 1 1 1 1
gene 2 2449 2 0.0 0 1 0 1
node 2450 1 1 1 1
gene 2 2450 2 0.0 0 1 0 1
node 2451 1 1 1 1
gene 2 2451 2 0.0 0 1 0 1
node 2452 1 1 1 1
gene 2 2452 2 0.0 0 1 0 1
node 2453 1 1 1 1
gene 2 2453 2 0.0 0 1 0 1
node 2454 1 1 1 1
gene 2 2454 2 0.0 0 1 0 1
node 2455 1 1 1 1
gene 2 2455 2 0.0 0 1 0 1
node 2456 1 1 1 1
gene 2 2456 2 0.0 0 1 0 1
node 2457 1 1 1 1
gene 2 2457 2 0.0 0 1 0 1
node 2458 1 1 1 1
gene 2 2458 2 0.0 0 1 0 1
node 2459 1 1 1 1
gene 2 2459 2 0.0 0 1 0 1
node 2460 1 1 1 1
gene 2 2460 2 0.0 0 1 0 1
node 2461 1 1 1 1
gene 2 2461 2 0.0 0 1 0 1
node 2462 1 1 1 1
gene 2 2462 2 0.0 0 1 0 1
node 2463 1 1 1 1
gene 2 2463 2 0.0 0 1 0 1
node 2464 1 1 1 1
gene 2 2464 2 0.0 0 1 0 1
node 2465 1 1 1 1
gene 2 2465 2 0.0 0 1 0 1
node 2466 1 1 1 1
gene 2 2466 2 0.0 0 1 0 1
node 2467 1 1 1 1
gene 2 2467 2 0.0 0 1 0 1
node 2468 1 1 1 1
gene 2 2468 2 0.0 0 1 0 1
node 2469 1 1 1 1
gene 2 2469 2 0.0 0 1 0 1
node 2470 1 1 1 1
gene 2 2470 2 0.0 0 1 0 1
node 2471 1 1 1 1
gene 2 2471 2 0.0 0 1 0 1
node 2472 1 1 1 1
gene 2 2472 2 0.0 0 1 0 1
node 2473 1 1 1 1
gene 2 2473 2 0.0 0 1 0 1
node 2474 1 1 1 1
gene 2 2474 2 0.0 0 1 0 1
node 2475 1 1 1 1
gene 2 2475 2 0.0 0 1 0 1
node 2476 1 1 1 1
gene 2 2476 2 0.0 0 1 0 1
node 2477 1 1 1 1
gene 2 2477 2 0.0 0 1 0 1
node 2478 1 1 1 1
gene 2 2478 2 0.0 0 1 0 1
node 2479 1 1 1 1
gene 2 2479 2 0.0 0 1 0 1
node 2480 1 1 1 1
gene 2 2480 2 0.0 0 1 0 1
node 2481 1 1 1 1
gene 2 2481 2 0.0 0 1 0 1
node 2482 1 1 1 1
gene 2 2482 2 0.0 0 1 0 1
node 2483 1 1 1 1
gene 2 2483 2 0.0 0 1 0 1
node 2484 1 1 1 1
gene 2 2484 2 0.0 0 1 0 1
node 2485 1 1 1 1
gene 2 2485 2 0.0 0 1 0 1
node 2486 1 1 1 1
gene 2 2486 2 0.0 0 1 0 1
node 2487 1 1 1 1
gene 2 2487 2 0.0 0 1 0 1
node 2488 1 1 1 1
gene 2 2488 2 0.0 0 1 0 1
node 2489 1 1 1 1
gene 2 2489 2 0.0 0 1 0 1
node 2490 1 1 1 1
gene 2 2490 2 0.0 0 1 0 1
node 2491 1 1 1 1
gene 2 2491 2 0.0 0 1 0 1
node 2492 1 1 1 1
gene 2 2492 2 0.0 0 1 0 1
node 2493 1 1 1 1
gene 2 2493 2 0.0 0 1 0 1
node 2494 1 1 1 1
gene 2 2494 2 0.0 0 1 0 1
node 2495 1 1 1 1
gene 2 2495 2 0.0 0 1 0 1
node 2496 1 1 1 1
gene 2 2496 2 0.0 0 1 0 1
node 2497 1 1 1 1
gene 2 2497 2 0.0 0 1 0 1
node 2498 1 1 1 1
gene 2 2498 2 0.0 0 1 0 1
node 2499 1 1 1 1
gene 2 2499 2 0.0 0 1 0 1
node 2500 1 1 1 1
gene 2 2500 2 0.0 0 1 0 1
node 2501 1 1 1 1
gene 2 2501 2 0.0 0 1 0 1
node 2502 1 1 1 1
gene 2 2502 2 0.0 0 1 0 1
node 2503 1 1 1 1
gene 2 2503 2 0.0 0 1 0 1
node 2504 1 1 1 1
gene 2 2504 2 0.0 0 1 0 1
node 2505 1 1 1 1
gene 2 2505 2 0.0 0 1 0 1
node 2506 1 1 1 1
gene 2 2506 2 0.0 0 1 0 1
node 2507 1 1 1 1
gene 2 2507 2 0.0 0 1 0 1
node 2508 1 1 1 1
gene 2 2508 2 0.0 0 1 0 1
node 2509 1 1 1 1
gene 2 2509 2 0.0 0 1 0 1
node 2510 1 1 1 1
gene 2 2510 2 0.0 0 1 0 1
node 2511 1 1 1 1
gene 2 2511 2 0.0 0 1 0 1
node 2512 1 1 1 1
gene 2 2512 2 0.0 0 1 0 1
node 2513 1 1 1 1
gene 2 2513 2 0.0 0 1 0 1
node 2514 1 1 1 1
gene 2 2514 2 0.0 0 1 0 1
node 2515 1 1 1 1
gene 2 2515 2 0.0 0 1 0 1
node 2516 1 1 1 1
gene 2 2516 2 0.0 0 1 0 1
node 2517 1 1 1 1
gene 2 2517 2 0.0 0 1 0 1
node 2518 1 1 1 1
gene 2 2518 2 0.0 0 1 0 1
node 2519 1 1 1 1
gene 2 2519 2 0.0 0 1 0 1
node 2520 1 1 1 1
gene 2 2520 2 0.0 0 1 0 1
node 2521 1 1 1 1
gene 2 2521 2 0.0 0 1 0 1
node 2522 1 1 1 1
gene 2 2522 2 0.0 0 1 0 1
node 2523 1 1 1 1
gene 2 2523 2 0.0 0 1 0 1
node 2524 1 1 1 1
gene 2 2524 2 0.0 0 1 0 1
node 2525 1 1 1 1
gene 2 2525 2 0.0 0 1 0 1
node 2526 1 1 1 1
gene 2 2526 2 0.0 0 1 0 1
node 2527 1 1 1 1
gene 2 2527 2 0.0 0 1 0 1
node 2528 1 1 1 1
gene 2 2528 2 0.0 0 1 0 1
node 2529 1 1 1 1
gene 2 2529 2 0.0 0 1 0 1
node 2530 1 1 1 1
gene 2 2530 2 0.0 0 1 0 1
node 2531 1 1 1 1
gene 2 2531 2 0.0 0 1 0 1
node 2532 1 1 1 1
gene 2 2532 2 0.0 0 1 0 1
node 2533 1 1 1 1
gene 2 2533 2 0.0 0 1 0 1
node 2534 1 1 1 1
gene 2 2534 2 0.0 0 1 0 1
node 2535 1 1 1 1
gene 2 2535 2 0.0 0 1 0 1
node 2536 1 1 1 1
gene 2 2536 2 0.0 0 1 0 1
node 2537 1 1 1 1
gene 2 2537 2 0.0 0 1 0 1
node 2538 1 1 1 1
gene 2 2538 2 0.0 0 1 0 1
node 2539 1 1 1 1
gene 2 2539 2 0.0 0 1 0 1
node 2540 1 1 1 1
gene 2 2540 2 0.0 0 1 0 1
node 2541 1 1 1 1
gene 2 2541 2 0.0 0 1 0 1
node 2542 1 1 1 1
gene 2 2542 2 0.0 0 1 0 1
node 2543 1 1 1 1
gene 2 2543 2 0.0 0 1 0 1
node 2544 1 1 1 1
gene 2 2544 2 0.0 0 1 0 1
node 2545 1 1 1 1
gene 2 2545 2 0.0 0 1 0 1
node 2546 1 1 1 1
gene 2 2546 2 0.0 0 1 0 1
node 2547 1 1 1 1
gene 2 2547 2 0.0 0 1 0 1
node 2548 1 1 1 1
gene 2 2548 2 0.0 0 1 0 1
node 2549 1 1 1 1
gene 2 2549 2 0.0 0 1 0 1
node 2550 1 1 1 1
gene 2 2550 2 0.0 0 1 0 1
node 2551 1 1 1 1
gene 2 2551 2 0.0 0 1 0 1
node 2552 1 1 1 1
gene 2 2552 2 0.0 0 1 0 1
node 2553 1 1 1 1
gene 2 2553 2 0.0 0 1 0 1
node 2554 1 1 1 1
gene 2 2554 2 0.0 0 1 0 1
node 2555 1 1 1 1
gene 2 2555 2 0.0 0 1 0 1
node 2556 1 1 1 1
gene 2 2556 2 0.0 0 1 0 1
node 2557 1 1 1 1
gene 2 2557 2 0.0 0 1 0 1
node 2558 1 1 1 1
gene 2 2558 2 0.0 0 1 0 1
node 2559 1 1 1 1
gene 2 2559 2 0.0 0 1 0 1
node 2560 1 1 1 1
gene 2 2560 2 0.0 0 1 0 1
node 2561 1 1 1 1
gene 2 2561 2 0.0 0 1 0 1
node 2562 1 1 1 1
gene 2 2562 2 0.0 0 1 0 1
node 2563 1 1 1 1
gene 2 2563 2 0.0 0 1 0 1
node 2564 1 1 1 1
gene 2 2564 2 0.0 0 1 0 1
node 2565 1 1 1 1
gene 2 2565 2 0.0 0 1 0 1
node 2566 1 1 1 1
gene 2 2566 2 0.0 0 1 0 1
node 2567 1 1 1 1
gene 2 2567 2 0.0 0 1 0 1
node 2568 1 1 1 1
gene 2 2568 2 0.0 0 1 0 1
node 2569 1 1 1 1
gene 2 2569 2 0.0 0 1 0 1
node 2570 1 1 1 1
gene 2 2570 2 0.0 0 1 0 1
node 2571 1 1 1 1
gene 2 2571 2 0.0 0 1 0 1
node 2572 1 1 1 1
gene 2 2572 2 0.0 0 1 0 1
node 2573 1 1 1 1
gene 2 2573 2 0.0 0 1 0 1
node 2574 1 1 1 1
gene 2 2574 2 0.0 0 1 0 1
node 2575 1 1 1 1
gene 2 2575 2 0.0 0 1 0 1
node 2576 1 1 1 1
gene 2 2576 2 0.0 0 1 0 1
node 2577 1 1 1 1
gene 2 2577 2 0.0 0 1 0 1
node 2578 1 1 1 1
gene 2 2578 2 0.0 0 1 0 1
node 2579 1 1 1 1
gene 2 2579 2 0.0 0 1 0 1
node 2580 1 1 1 1
gene 2 2580 2 0.0 0 1 0 1
node 2581 1 1 1 1
gene 2 2581 2 0.0 0 1 0 1
node 2582 1 1 1 1
gene 2 2582 2 0.0 0 1 0 1
node 2583 1 1 1 1
gene 2 2583 2 0.0 0 1 0 1
node 2584 1 1 1 1
gene 2 2584 2 0.0 0 1 0 1
node 2585 1 1 1 1
gene 2 2585 2 0.0 0 1 0 1
node 2586 1 1 1 1
gene 2 2586 2 0.0 0 1 0 1
node 2587 1 1 1 1
gene 2 2587 2 0.0 0 1 0 1
node 2588 1 1 1 1
gene 2 2588 2 0.0 0 1 0 1
node 2589 1 1 1 1
gene 2 2589 2 0.0 0 1 0 1
node 2590 1 1 1 1
gene 2 2590 2 0.0 0 1 0 1
node 2591 1 1 1 1
gene 2 2591 2 0.0 0 1 0 1
node 2592 1 1 1 1
gene 2 2592 2 0.0 0 1 0 1
node 2593 1 1 1 1
gene 2 2593 2 0.0 0 1 0 1
node 2594 1 1 1 1
gene 2 2594 2 0.0 0 1 0 1
node 2595 1 1 1 1
gene 2 2595 2 0.0 0 1 0 1
node 2596 1 1 1 1
gene 2 2596 2 0.0 0 1 0 1
node 2597 1 1 1 1
gene 2 2597 2 0.0 0 1 0 1
node 2598 1 1 1 1
gene 2 2598 2 0.0 0 1 0 1
node 2599 1 1 1 1
gene 2 2599 2 0.0 0 1 0 1
node 2600 1 1 1 1
gene 2 2600 2 0.0 0 1 0 1
node 2601 1 1 1 1
gene 2 2601 2 0.0 0 1 0 1
node 2602 1 1 1 1
gene 2 2602 2 0.0 0 1 0 1
node 2603 1 1 1 1
gene 2 2603 2 0.0 0 1 0 1
node 2604 1 1 1 1
gene 2 2604 2 0.0 0 1 0 1
node 2605 1 1 1 1
gene 2 2605 2 0.0 0 1 0 1
node 2606 1 1 1 1
gene 2 2606 2 0.0 0 1 0 1
node 2607 1 1 1 1
gene 2 2607 2 0.0 0 1 0 1
node 2608 1 1 1 1
gene 2 2608 2 0.0 0 1 0 1
node 2609 1 1 1 1
gene 2 2609 2 0.0 0 1 0 1
node 2610 1 1 1 1
gene 2 2610 2 0.0 0 1 0 1
node 2611 1 1 1 1
gene 2 2611 2 0.0 0 1 0 1
node 2612 1 1 1 1
gene 2 2612 2 0.0 0 1 0 1
node 2613 1 1 1 1
gene 2 2613 2 0.0 0 1 0 1
node 2614 1 1 1 1
gene 2 2614 2 0.0 0 1 0 1
node 2615 1 1 1 1
gene 2 2615 2 0.0 0 1 0 1
node 2616 1 1 1 1
gene 2 2616 2 0.0 0 1 0 1
node 2617 1 1 1 1
gene 2 2617 2 0.0 0 1 0 1
node 2618 1 1 1 1
gene 2 2618 2 0.0 0 1 0 1
node 2619 1 1 1 1
gene 2 2619 2 0.0 0 1 0 1
node 2620 1 1 1 1
gene 2 2620 2 0.0 0 1 0 1
node 2621 1 1 1 1
gene 2 2621 2 0.0 0 1 0 1
node 2622 1 1 1 1
gene 2 2622 2 0.0 0 1 0 1
node 2623 1 1 1 1
gene 2 2623 2 0.0 0 1 0 1
node 2624 1 1 1 1
gene 2 2624 2 0.0 0 1 0 1
node 2625 1 1 1 1
gene 2 2625 2 0.0 0 1 0 1
node 2626 1 1 1 1
gene 2 2626 2 0.0 0 1 0 1
node 2627 1 1 1 1
gene 2 2627 2 0.0 0 1 0 1
node 2628 1 1 1 1
gene 2 2628 2 0.0 0 1 0 1
node 2629 1 1 1 1
gene 2 2629 2 0.0 0 1 0 1
node 2630 1 1 1 1
gene 2 2630 2 0.0 0 1 0 1
node 2631 1 1 1 1
gene 2 2631 2 0.0 0 1 0 1
node 2632 1 1 1 1
gene 2 2632 2 0.0 0 1 0 1
node 2633 1 1 1 1
gene 2 2633 2 0.0 0 1 0 1
node 2634 1 1 1 1
gene 2 2634 2 0.0 0 1 0 1
node 2635 1 1 1 1
gene 2 2635 2 0.0 0 1 0 1
node 2636 1 1 1 1
gene 2 2636 2 0.0 0 1 0 1
node 2637 1 1 1 1
gene 2 2637 2 0.0 0 1 0 1
node 2638 1 1 1 1
gene 2 2638 2 0.0 0 1 0 1
node 2639 1 1 1 1
gene 2 2639 2 0.0 0 1 0 1
node 2640 1 1 1 1
gene 2 2640 2 0.0 0 1 0 1
node 2641 1 1 1 1
gene 2 2641 2 0.0 0 1 0 1
node 2642 1 1 1 1
gene 2 2642 2 0.0 0 1 0 1
node 2643 1 1 1 1
gene 2 2643 2 0.0 0 1 0 1
node 2644 1 1 1 1
gene 2 2644 2 0.0 0 1 0 1
node 2645 1 1 1 1
gene 2 2645 2 0.0 0 1 0 1
node 2646 1 1 1 1
gene 2 2646 2 0.0 0 1 0 1
node 2647 1 1 1 1
gene 2 2647 2 0.0 0 1 0 1
node 2648 1 1 1 1
gene 2 2648 2 0.0 0 1 0 1
node 2649 1 1 1 1
gene 2 2649 2 0.0 0 1 0 1
node 2650 1 1 1 1
gene 2 2650 2 0.0 0 1 0 1
node 2651 1 1 1 1
gene 2 2651 2 0.0 0 1 0 1
node 2652 1 1 1 1
gene 2 2652 2 0.0 0 1 0 1
node 2653 1 1 1 1
gene 2 2653 2 0.0 0 1 0 1
node 2654 1 1 1 1
gene 2 2654 2 0.0 0 1 0 1
node 2655 1 1 1 1
gene 2 2655 2 0.0 0 1 0 1
node 2656 1 1 1 1
gene 2 2656 2 0.0 0 1 0 1
node 2657 1 1 1 1
gene 2 2657 2 0.0 0 1 0 1
node 2658 1 1 1 1
gene 2 2658 2 0.0 0 1 0 1
node 2659 1 1 1 1
gene 2 2659 2 0.0 0 1 0 1
node 2660 1 1 1 1
gene 2 2660 2 0.0 0 1 0 1
node 2661 1 1 1 1
gene 2 2661 2 0.0 0 1 0 1
node 2662 1 1 1 1
gene 2 2662 2 0.0 0 1 0 1
node 2663 1 1 1 1
gene 2 2663 2 0.0 0 1 0 1
node 2664 1 1 1 1
gene 2 2664 2 0.0 0 1 0 1
node 2665 1 1 1 1
gene 2 2665 2 0.0 0 1 0 1
node 2666 1 1 1 1
gene 2 2666 2 0.0 0 1 0 1
node 2667 1 1 1 1
gene 2 2667 2 0.0 0 1 0 1
node 2668 1 1 1 1
gene 2 2668 2 0.0 0 1 0 1
node 2669 1 1 1 1
gene 2 2669 2 0.0 0 1 0 1
node 2670 1 1 1 1
gene 2 2670 2 0.0 0 1 0 1
node 2671 1 1 1 1
gene 2 2671 2 0.0 0 1 0 1
node 2672 1 1 1 1
gene 2 2672 2 0.0 0 1 0 1
node 2673 1 1 1 1
gene 2 2673 2 0.0 0 1 0 1
node 2674 1 1 1 1
gene 2 2674 2 0.0 0 1 0 1
node 2675 1 1 1 1
gene 2 2675 2 0.0 0 1 0 1
node 2676 1 1 1 1
gene 2 2676 2 0.0 0 1 0 1
node 2677 1 1 1 1
gene 2 2677 2 0.0 0 1 0 1
node 2678 1 1 1 1
gene 2 2678 2 0.0 0 1 0 1
node 2679 1 1 1 1
gene 2 2679 2 0.0 0 1 0 1
node 2680 1 1 1 1
gene 2 2680 2 0.0 0 1 0 1
node 2681 1 1 1 1
gene 2 2681 2 0.0 0 1 0 1
node 2682 1 1 1 1
gene 2 2682 2 0.0 0 1 0 1
node 2683 1 1 1 1
gene 2 2683 2 0.0 0 1 0 1
node 2684 1 1 1 1
gene 2 2684 2 0.0 0 1 0 1
node 2685 1 1 1 1
gene 2 2685 2 0.0 0 1 0 1
node 2686 1 1 1 1
gene 2 2686 2 0.0 0 1 0 1
node 2687 1 1 1 1
gene 2 2687 2 0.0 0 1 0 1
node 2688 1 1 1 1
gene 2 2688 2 0.0 0 1 0 1
node 2689 1 1 1 1
gene 2 2689 2 0.0 0 1 0 1
node 2690 1 1 1 1
gene 2 2690 2 0.0 0 1 0 1
node 2691 1 1 1 1
gene 2 2691 2 0.0 0 1 0 1
node 2692 1 1 1 1
gene 2 2692 2 0.0 0 1 0 1
node 2693 1 1 1 1
gene 2 2693 2 0.0 0 1 0 1
node 2694 1 1 1 1
gene 2 2694 2 0.0 0 1 0 1
node 2695 1 1 1 1
gene 2 2695 2 0.0 0 1 0 1
node 2696 1 1 1 1
gene 2 2696 2 0.0 0 1 0 1
node 2697 1 1 1 1
gene 2 2697 2 0.0 0 1 0 1
node 2698 1 1 1 1
gene 2 2698 2 0.0 0 1 0 1
node 2699 1 1 1 1
gene 2 2699 2 0.0 0 1 0 1
node 2700 1 1 1 1
gene 2 2700 2 0.0 0 1 0 1
node 2701 1 1 1 1
gene 2 2701 2 0.0 0 1 0 1
node 2702 1 1 1 1
gene 2 2702 2 0.0 0 1 0 1
node 2703 1 1 1 1
gene 2 2703 2 0.0 0 1 0 1
node 2704 1 1 1 1
gene 2 2704 2 0.0 0 1 0 1
node 2705 1 1 1 1
gene 2 2705 2 0.0 0 1 0 1
node 2706 1 1 1 1
gene 2 2706 2 0.0 0 1 0 1
node 2707 1 1 1 1
gene 2 2707 2 0.0 0 1 0 1
node 2708 1 1 1 1
gene 2 2708 2 0.0 0 1 0 1
node 2709 1 1 1 1
gene 2 2709 2 0.0 0 1 0 1
node 2710 1 1 1 1
gene 2 2710 2 0.0 0 1 0 1
node 2711 1 1 1 1
gene 2 2711 2 0.0 0 1 0 1
node 2712 1 1 1 1
gene 2 2712 2 0.0 0 1 0 1
node 2713 1 1 1 1
gene 2 2713 2 0.0 0 1 0 1
node 2714 1 1 1 1
gene 2 2714 2 0.0 0 1 0 1
node 2715 1 1 1 1
gene 2 2715 2 0.0 0 1 0 1
node 2716 1 1 1 1
gene 2 2716 2 0.0 0 1 0 1
node 2717 1 1 1 1
gene 2 2717 2 0.0 0 1 0 1
node 2718 1 1 1 1
gene 2 2718 2 0.0 0 1 0 1
node 2719 1 1 1 1
gene 2 2719 2 0.0 0 1 0 1
node 2720 1 1 1 1
gene 2 2720 2 0.0 0 1 0 1
node 2721 1 1 1 1
gene 2 2721 2 0.0 0 1 0 1
node 2722 1 1 1 1
gene 2 2722 2 0.0 0 1 0 1
node 2723 1 1 1 1
gene 2 2723 2 0.0 0 1 0 1
node 2724 1 1 1 1
gene 2 2724 2 0.0 0 1 0 1
node 2725 1 1 1 1
gene 2 2725 2 0.0 0 1 0 1
node 2726 1 1 1 1
gene 2 2726 2 0.0 0 1 0 1
node 2727 1 1 1 1
gene 2 2727 2 0.0 0 1 0 1
node 2728 1 1 1 1
gene 2 2728 2 0.0 0 1 0 1
node 2729 1 1 1 1
gene 2 2729 2 0.0 0 1 0 1
node 2730 1 1 1 1
gene 2 2730 2 0.0 0 1 0 1
node 2731 1 1 1 1
gene 2 2731 2 0.0 0 1 0 1
node 2732 1 1 1 1
gene 2 2732 2 0.0 0 1 0 1
node 2733 1 1 1 1
gene 2 2733 2 0.0 0 1 0 1
node 2734 1 1 1 1
gene 2 2734 2 0.0 0 1 0 1
node 2735 1 1 1 1
gene 2 2735 2 0.0 0 1 0 1
node 2736 1 1 1 1
gene 2 2736 2 0.0 0 1 0 1
node 2737 1 1 1 1
gene 2 2737 2 0.0 0 1 0 1
node 2738 1 1 1 1
gene 2 2738 2 0.0 0 1 0 1
node 2739 1 1 1 1
gene 2 2739 2 0.0 0 1 0 1
node 2740 1 1 1 1
gene 2 2740 2 0.0 0 1 0 1
node 2741 1 1 1 1
gene 2 2741 2 0.0 0 1 0 1
node 2742 1 1 1 1
gene 2 2742 2 0.0 0 1 0 1
node 2743 1 1 1 1
gene 2 2743 2 0.0 0 1 0 1
node 2744 1 1 1 1
gene 2 2744 2 0.0 0 1 0 1
node 2745 1 1 1 1
gene 2 2745 2 0.0 0 1 0 1
node 2746 1 1 1 1
gene 2 2746 2 0.0 0 1 0 1
node 2747 1 1 1 1
gene 2 2747 2 0.0 0 1 0 1
node 2748 1 1 1 1
gene 2 2748 2 0.0 0 1 0 1
node 2749 1 1 1 1
gene 2 2749 2 0.0 0 1 0 1
node 2750 1 1 1 1
gene 2 2750 2 0.0 0 1 0 1
node 2751 1 1 1 1
gene 2 2751 2 0.0 0 1 0 1
node 2752 1 1 1 1
gene 2 2752 2 0.0 0 1 0 1
node 2753 1 1 1 1
gene 2 2753 2 0.0 0 1 0 1
node 2754 1 1 1 1
gene 2 2754 2 0.0 0 1 0 1
node 2755 1 1 1 1
gene 2 2755 2 0.0 0 1 0 1
node 2756 1 1 1 1
gene 2 2756 2 0.0 0 1 0 1
node 2757 1 1 1 1
gene 2 2757 2 0.0 0 1 0 1
node 2758 1 1 1 1
gene 2 2758 2 0.0 0 1 0 1
node 2759 1 1 1 1
gene 2 2759 2 0.0 0 1 0 1
node 2760 1 1 1 1
gene 2 2760 2 0.0 0 1 0 1
node 2761 1 1 1 1
gene 2 2761 2 0.0 0 1 0 1
node 2762 1 1 1 1
gene 2 2762 2 0.0 0 1 0 1
node 2763 1 1 1 1
gene 2 2763 2 0.0 0 1 0 1
node 2764 1 1 1 1
gene 2 2764 2 0.0 0 1 0 1
node 2765 1 1 1 1
gene 2 2765 2 0.0 0 1 0 1
node 2766 1 1 1 1
gene 2 2766 2 0.0 0 1 0 1
node 2767 1 1 1 1
gene 2 2767 2 0.0 0 1 0 1
node 2768 1 1 1 1
gene 2 2768 2 0.0 0 1 0 1
node 2769 1 1 1 1
gene 2 2769 2 0.0 0 1 0 1
node 2770 1 1 1 1
gene 2 2770 2 0.0 0 1 0 1
node 2771 1 1 1 1
gene 2 2771 2 0.0 0 1 0 1
node 2772 1 1 1 1
gene 2 2772 2 0.0 0 1 0 1
node 2773 1 1 1 1
gene 2 2773 2 0.0 0 1 0 1
node 2774 1 1 1 1
gene 2 2774 2 0.0 0 1 0 1
node 2775 1 1 1 1
gene 2 2775 2 0.0 0 1 0 1
node 2776 1 1 1 1
gene 2 2776 2 0.0 0 1 0 1
node 2777 1 1 1 1
gene 2 2777 2 0.0 0 1 0 1
node 2778 1 1 1 1
gene 2 2778 2 0.0 0 1 0 1
node 2779 1 1 1 1
gene 2 2779 2 0.0 0 1 0 1
node 2780 1 1 1 1
gene 2 2780 2 0.0 0 1 0 1
node 2781 1 1 1 1
gene 2 2781 2 0.0 0 1 0 1
node 2782 1 1 1 1
gene 2 2782 2 0.0 0 1 0 1
node 2783 1 1 1 1
gene 2 2783 2 0.0 0 1 0 1
node 2784 1 1 1 1
gene 2 2784 2 0.0 0 1 0 1
node 2785 1 1 1 1
gene 2 2785 2 0.0 0 1 0 1
node 2786 1 1 1 1
gene 2 2786 2 0.0 0 1 0 1
node 2787 1 1 1 1
gene 2 2787 2 0.0 0 1 0 1
node 2788 1 1 1 1
gene 2 2788 2 0.0 0 1 0 1
node 2789 1 1 1 1
gene 2 2789 2 0.0 0 1 0 1
node 2790 1 1 1 1
gene 2 2790 2 0.0 0 1 0 1
node 2791 1 1 1 1
gene 2 2791 2 0.0 0 1 0 1
node 2792 1 1 1 1
gene 2 2792 2 0.0 0 1 0 1
node 2793 1 1 1 1
gene 2 2793 2 0.0 0 1 0 1
node 2794 1 1 1 1
gene 2 2794 2 0.0 0 1 0 1
node 2795 1 1 1 1
gene 2 2795 2 0.0 0 1 0 1
node 2796 1 1 1 1
gene 2 2796 2 0.0 0 1 0 1
node 2797 1 1 1 1
gene 2 2797 2 0.0 0 1 0 1
node 2798 1 1 1 1
gene 2 2798 2 0.0 0 1 0 1
node 2799 1 1 1 1
gene 2 2799 2 0.0 0 1 0 1
node 2800 1 1 1 1
gene 2 2800 2 0.0 0 1 0 1
node 2801 1 1 1 1
gene 2 2801 2 0.0 0 1 0 1
node 2802 1 1 1 1
gene 2 2802 2 0.0 0 1 0 1


node 2803 2 1 1 1
gene 3 2803 2 0.0 0 1 0 1
node 2804 2 1 1 1
gene 3 2804 2 0.0 0 1 0 1
node 2805 2 1 1 1
gene 3 2805 2 0.0 0 1 0 1
node 2806 2 1 1 1
gene 3 2806 2 0.0 0 1 0 1
node 2807 2 1 1 1
gene 3 2807 2 0.0 0 1 0 1
node 2808 2 1 1 1
gene 3 2808 2 0.0 0 1 0 1
node 2809 2 1 1 1
gene 3 2809 2 0.0 0 1 0 1
node 2810 2 1 1 1
gene 3 2810 2 0.0 0 1 0 1
node 2811 2 1 1 1
gene 3 2811 2 0.0 0 1 0 1
node 2812 2 1 1 1
gene 3 2812 2 0.0 0 1 0 1
node 2813 2 1 1 1
gene 3 2813 2 0.0 0 1 0 1
node 2814 2 1 1 1
gene 3 2814 2 0.0 0 1 0 1
node 2815 2 1 1 1
gene 3 2815 2 0.0 0 1 0 1
node 2816 2 1 1 1
gene 3 2816 2 0.0 0 1 0 1
node 2817 2 1 1 1
gene 3 2817 2 0.0 0 1 0 1
node 2818 2 1 1 1
gene 3 2818 2 0.0 0 1 0 1
node 2819 2 1 1 1
gene 3 2819 2 0.0 0 1 0 1
node 2820 2 1 1 1
gene 3 2820 2 0.0 0 1 0 1
node 2821 2 1 1 1
gene 3 2821 2 0.0 0 1 0 1
node 2822 2 1 1 1
gene 3 2822 2 0.0 0 1 0 1
node 2823 2 1 1 1
gene 3 2823 2 0.0 0 1 0 1
node 2824 2 1 1 1
gene 3 2824 2 0.0 0 1 0 1
node 2825 2 1 1 1
gene 3 2825 2 0.0 0 1 0 1
node 2826 2 1 1 1
gene 3 2826 2 0.0 0 1 0 1
node 2827 2 1 1 1
gene 3 2827 2 0.0 0 1 0 1
node 2828 2 1 1 1
gene 3 2828 2 0.0 0 1 0 1
node 2829 2 1 1 1
gene 3 2829 2 0.0 0 1 0 1
node 2830 2 1 1 1
gene 3 2830 2 0.0 0 1 0 1
node 2831 2 1 1 1
gene 3 2831 2 0.0 0 1 0 1
node 2832 2 1 1 1
gene 3 2832 2 0.0 0 1 0 1
node 2833 2 1 1 1
gene 3 2833 2 0.0 0 1 0 1
node 2834 2 1 1 1
gene 3 2834 2 0.0 0 1 0 1
node 2835 2 1 1 1
gene 3 2835 2 0.0 0 1 0 1
node 2836 2 1 1 1
gene 3 2836 2 0.0 0 1 0 1
node 2837 2 1 1 1
gene 3 2837 2 0.0 0 1 0 1
node 2838 2 1 1 1
gene 3 2838 2 0.0 0 1 0 1
node 2839 2 1 1 1
gene 3 2839 2 0.0 0 1 0 1
node 2840 2 1 1 1
gene 3 2840 2 0.0 0 1 0 1
node 2841 2 1 1 1
gene 3 2841 2 0.0 0 1 0 1
node 2842 2 1 1 1
gene 3 2842 2 0.0 0 1 0 1
node 2843 2 1 1 1
gene 3 2843 2 0.0 0 1 0 1
node 2844 2 1 1 1
gene 3 2844 2 0.0 0 1 0 1
node 2845 2 1 1 1
gene 3 2845 2 0.0 0 1 0 1
node 2846 2 1 1 1
gene 3 2846 2 0.0 0 1 0 1
node 2847 2 1 1 1
gene 3 2847 2 0.0 0 1 0 1
node 2848 2 1 1 1
gene 3 2848 2 0.0 0 1 0 1
node 2849 2 1 1 1
gene 3 2849 2 0.0 0 1 0 1
node 2850 2 1 1 1
gene 3 2850 2 0.0 0 1 0 1
node 2851 2 1 1 1
gene 3 2851 2 0.0 0 1 0 1
node 2852 2 1 1 1
gene 3 2852 2 0.0 0 1 0 1
node 2853 2 1 1 1
gene 3 2853 2 0.0 0 1 0 1
node 2854 2 1 1 1
gene 3 2854 2 0.0 0 1 0 1
node 2855 2 1 1 1
gene 3 2855 2 0.0 0 1 0 1
node 2856 2 1 1 1
gene 3 2856 2 0.0 0 1 0 1
node 2857 2 1 1 1
gene 3 2857 2 0.0 0 1 0 1
node 2858 2 1 1 1
gene 3 2858 2 0.0 0 1 0 1
node 2859 2 1 1 1
gene 3 2859 2 0.0 0 1 0 1
node 2860 2 1 1 1
gene 3 2860 2 0.0 0 1 0 1
node 2861 2 1 1 1
gene 3 2861 2 0.0 0 1 0 1
node 2862 2 1 1 1
gene 3 2862 2 0.0 0 1 0 1
node 2863 2 1 1 1
gene 3 2863 2 0.0 0 1 0 1
node 2864 2 1 1 1
gene 3 2864 2 0.0 0 1 0 1
node 2865 2 1 1 1
gene 3 2865 2 0.0 0 1 0 1
node 2866 2 1 1 1
gene 3 2866 2 0.0 0 1 0 1
node 2867 2 1 1 1
gene 3 2867 2 0.0 0 1 0 1
node 2868 2 1 1 1
gene 3 2868 2 0.0 0 1 0 1
node 2869 2 1 1 1
gene 3 2869 2 0.0 0 1 0 1
node 2870 2 1 1 1
gene 3 2870 2 0.0 0 1 0 1
node 2871 2 1 1 1
gene 3 2871 2 0.0 0 1 0 1
node 2872 2 1 1 1
gene 3 2872 2 0.0 0 1 0 1
node 2873 2 1 1 1
gene 3 2873 2 0.0 0 1 0 1
node 2874 2 1 1 1
gene 3 2874 2 0.0 0 1 0 1
node 2875 2 1 1 1
gene 3 2875 2 0.0 0 1 0 1
node 2876 2 1 1 1
gene 3 2876 2 0.0 0 1 0 1
node 2877 2 1 1 1
gene 3 2877 2 0.0 0 1 0 1
node 2878 2 1 1 1
gene 3 2878 2 0.0 0 1 0 1
node 2879 2 1 1 1
gene 3 2879 2 0.0 0 1 0 1
node 2880 2 1 1 1
gene 3 2880 2 0.0 0 1 0 1
node 2881 2 1 1 1
gene 3 2881 2 0.0 0 1 0 1
node 2882 2 1 1 1
gene 3 2882 2 0.0 0 1 0 1
node 2883 2 1 1 1
gene 3 2883 2 0.0 0 1 0 1
node 2884 2 1 1 1
gene 3 2884 2 0.0 0 1 0 1
node 2885 2 1 1 1
gene 3 2885 2 0.0 0 1 0 1
node 2886 2 1 1 1
gene 3 2886 2 0.0 0 1 0 1
node 2887 2 1 1 1
gene 3 2887 2 0.0 0 1 0 1
node 2888 2 1 1 1
gene 3 2888 2 0.0 0 1 0 1
node 2889 2 1 1 1
gene 3 2889 2 0.0 0 1 0 1
node 2890 2 1 1 1
gene 3 2890 2 0.0 0 1 0 1
node 2891 2 1 1 1
gene 3 2891 2 0.0 0 1 0 1
node 2892 2 1 1 1
gene 3 2892 2 0.0 0 1 0 1
node 2893 2 1 1 1
gene 3 2893 2 0.0 0 1 0 1
node 2894 2 1 1 1
gene 3 2894 2 0.0 0 1 0 1
node 2895 2 1 1 1
gene 3 2895 2 0.0 0 1 0 1
node 2896 2 1 1 1
gene 3 2896 2 0.0 0 1 0 1
node 2897 2 1 1 1
gene 3 2897 2 0.0 0 1 0 1
node 2898 2 1 1 1
gene 3 2898 2 0.0 0 1 0 1
node 2899 2 1 1 1
gene 3 2899 2 0.0 0 1 0 1
node 2900 2 1 1 1
gene 3 2900 2 0.0 0 1 0 1
node 2901 2 1 1 1
gene 3 2901 2 0.0 0 1 0 1
node 2902 2 1 1 1
gene 3 2902 2 0.0 0 1 0 1
node 2903 2 1 1 1
gene 3 2903 2 0.0 0 1 0 1
node 2904 2 1 1 1
gene 3 2904 2 0.0 0 1 0 1
node 2905 2 1 1 1
gene 3 2905 2 0.0 0 1 0 1
node 2906 2 1 1 1
gene 3 2906 2 0.0 0 1 0 1
node 2907 2 1 1 1
gene 3 2907 2 0.0 0 1 0 1
node 2908 2 1 1 1
gene 3 2908 2 0.0 0 1 0 1
node 2909 2 1 1 1
gene 3 2909 2 0.0 0 1 0 1
node 2910 2 1 1 1
gene 3 2910 2 0.0 0 1 0 1
node 2911 2 1 1 1
gene 3 2911 2 0.0 0 1 0 1
node 2912 2 1 1 1
gene 3 2912 2 0.0 0 1 0 1
node 2913 2 1 1 1
gene 3 2913 2 0.0 0 1 0 1
node 2914 2 1 1 1
gene 3 2914 2 0.0 0 1 0 1
node 2915 2 1 1 1
gene 3 2915 2 0.0 0 1 0 1
node 2916 2 1 1 1
gene 3 2916 2 0.0 0 1 0 1
node 2917 2 1 1 1
gene 3 2917 2 0.0 0 1 0 1
node 2918 2 1 1 1
gene 3 2918 2 0.0 0 1 0 1
node 2919 2 1 1 1
gene 3 2919 2 0.0 0 1 0 1
node 2920 2 1 1 1
gene 3 2920 2 0.0 0 1 0 1
node 2921 2 1 1 1
gene 3 2921 2 0.0 0 1 0 1
node 2922 2 1 1 1
gene 3 2922 2 0.0 0 1 0 1
node 2923 2 1 1 1
gene 3 2923 2 0.0 0 1 0 1
node 2924 2 1 1 1
gene 3 2924 2 0.0 0 1 0 1
node 2925 2 1 1 1
gene 3 2925 2 0.0 0 1 0 1
node 2926 2 1 1 1
gene 3 2926 2 0.0 0 1 0 1
node 2927 2 1 1 1
gene 3 2927 2 0.0 0 1 0 1
node 2928 2 1 1 1
gene 3 2928 2 0.0 0 1 0 1
node 2929 2 1 1 1
gene 3 2929 2 0.0 0 1 0 1
node 2930 2 1 1 1
gene 3 2930 2 0.0 0 1 0 1
node 2931 2 1 1 1
gene 3 2931 2 0.0 0 1 0 1
node 2932 2 1 1 1
gene 3 2932 2 0.0 0 1 0 1
node 2933 2 1 1 1
gene 3 2933 2 0.0 0 1 0 1
node 2934 2 1 1 1
gene 3 2934 2 0.0 0 1 0 1
node 2935 2 1 1 1
gene 3 2935 2 0.0 0 1 0 1
node 2936 2 1 1 1
gene 3 2936 2 0.0 0 1 0 1
node 2937 2 1 1 1
gene 3 2937 2 0.0 0 1 0 1
node 2938 2 1 1 1
gene 3 2938 2 0.0 0 1 0 1
node 2939 2 1 1 1
gene 3 2939 2 0.0 0 1 0 1
node 2940 2 1 1 1
gene 3 2940 2 0.0 0 1 0 1
node 2941 2 1 1 1
gene 3 2941 2 0.0 0 1 0 1
node 2942 2 1 1 1
gene 3 2942 2 0.0 0 1 0 1
node 2943 2 1 1 1
gene 3 2943 2 0.0 0 1 0 1
node 2944 2 1 1 1
gene 3 2944 2 0.0 0 1 0 1
node 2945 2 1 1 1
gene 3 2945 2 0.0 0 1 0 1
node 2946 2 1 1 1
gene 3 2946 2 0.0 0 1 0 1
node 2947 2 1 1 1
gene 3 2947 2 0.0 0 1 0 1
node 2948 2 1 1 1
gene 3 2948 2 0.0 0 1 0 1
node 2949 2 1 1 1
gene 3 2949 2 0.0 0 1 0 1
node 2950 2 1 1 1
gene 3 2950 2 0.0 0 1 0 1
node 2951 2 1 1 1
gene 3 2951 2 0.0 0 1 0 1
node 2952 2 1 1 1
gene 3 2952 2 0.0 0 1 0 1
node 2953 2 1 1 1
gene 3 2953 2 0.0 0 1 0 1
node 2954 2 1 1 1
gene 3 2954 2 0.0 0 1 0 1
node 2955 2 1 1 1
gene 3 2955 2 0.0 0 1 0 1
node 2956 2 1 1 1
gene 3 2956 2 0.0 0 1 0 1
node 2957 2 1 1 1
gene 3 2957 2 0.0 0 1 0 1
node 2958 2 1 1 1
gene 3 2958 2 0.0 0 1 0 1
node 2959 2 1 1 1
gene 3 2959 2 0.0 0 1 0 1
node 2960 2 1 1 1
gene 3 2960 2 0.0 0 1 0 1
node 2961 2 1 1 1
gene 3 2961 2 0.0 0 1 0 1
node 2962 2 1 1 1
gene 3 2962 2 0.0 0 1 0 1
node 2963 2 1 1 1
gene 3 2963 2 0.0 0 1 0 1
node 2964 2 1 1 1
gene 3 2964 2 0.0 0 1 0 1
node 2965 2 1 1 1
gene 3 2965 2 0.0 0 1 0 1
node 2966 2 1 1 1
gene 3 2966 2 0.0 0 1 0 1
node 2967 2 1 1 1
gene 3 2967 2 0.0 0 1 0 1
node 2968 2 1 1 1
gene 3 2968 2 0.0 0 1 0 1
node 2969 2 1 1 1
gene 3 2969 2 0.0 0 1 0 1
node 2970 2 1 1 1
gene 3 2970 2 0.0 0 1 0 1
node 2971 2 1 1 1
gene 3 2971 2 0.0 0 1 0 1
node 2972 2 1 1 1
gene 3 2972 2 0.0 0 1 0 1
node 2973 2 1 1 1
gene 3 2973 2 0.0 0 1 0 1
node 2974 2 1 1 1
gene 3 2974 2 0.0 0 1 0 1
node 2975 2 1 1 1
gene 3 2975 2 0.0 0 1 0 1
node 2976 2 1 1 1
gene 3 2976 2 0.0 0 1 0 1
node 2977 2 1 1 1
gene 3 2977 2 0.0 0 1 0 1
node 2978 2 1 1 1
gene 3 2978 2 0.0 0 1 0 1
node 2979 2 1 1 1
gene 3 2979 2 0.0 0 1 0 1
node 2980 2 1 1 1
gene 3 2980 2 0.0 0 1 0 1
node 2981 2 1 1 1
gene 3 2981 2 0.0 0 1 0 1
node 2982 2 1 1 1
gene 3 2982 2 0.0 0 1 0 1
node 2983 2 1 1 1
gene 3 2983 2 0.0 0 1 0 1
node 2984 2 1 1 1
gene 3 2984 2 0.0 0 1 0 1
node 2985 2 1 1 1
gene 3 2985 2 0.0 0 1 0 1
node 2986 2 1 1 1
gene 3 2986 2 0.0 0 1 0 1
node 2987 2 1 1 1
gene 3 2987 2 0.0 0 1 0 1
node 2988 2 1 1 1
gene 3 2988 2 0.0 0 1 0 1
node 2989 2 1 1 1
gene 3 2989 2 0.0 0 1 0 1
node 2990 2 1 1 1
gene 3 2990 2 0.0 0 1 0 1
node 2991 2 1 1 1
gene 3 2991 2 0.0 0 1 0 1
node 2992 2 1 1 1
gene 3 2992 2 0.0 0 1 0 1
node 2993 2 1 1 1
gene 3 2993 2 0.0 0 1 0 1
node 2994 2 1 1 1
gene 3 2994 2 0.0 0 1 0 1
node 2995 2 1 1 1
gene 3 2995 2 0.0 0 1 0 1
node 2996 2 1 1 1
gene 3 2996 2 0.0 0 1 0 1
node 2997 2 1 1 1
gene 3 2997 2 0.0 0 1 0 1
node 2998 2 1 1 1
gene 3 2998 2 0.0 0 1 0 1
node 2999 2 1 1 1
gene 3 2999 2 0.0 0 1 0 1
node 3000 2 1 1 1
gene 3 3000 2 0.0 0 1 0 1
node 3001 2 1 1 1
gene 3 3001 2 0.0 0 1 0 1
node 3002 2 1 1 1
gene 3 3002 2 0.0 0 1 0 1
node 3003 2 1 1 1
gene 3 3003 2 0.0 0 1 0 1
node 3004 2 1 1 1
gene 3 3004 2 0.0 0 1 0 1
node 3005 2 1 1 1
gene 3 3005 2 0.0 0 1 0 1
node 3006 2 1 1 1
gene 3 3006 2 0.0 0 1 0 1
node 3007 2 1 1 1
gene 3 3007 2 0.0 0 1 0 1
node 3008 2 1 1 1
gene 3 3008 2 0.0 0 1 0 1
node 3009 2 1 1 1
gene 3 3009 2 0.0 0 1 0 1
node 3010 2 1 1 1
gene 3 3010 2 0.0 0 1 0 1
node 3011 2 1 1 1
gene 3 3011 2 0.0 0 1 0 1
node 3012 2 1 1 1
gene 3 3012 2 0.0 0 1 0 1
node 3013 2 1 1 1
gene 3 3013 2 0.0 0 1 0 1
node 3014 2 1 1 1
gene 3 3014 2 0.0 0 1 0 1
node 3015 2 1 1 1
gene 3 3015 2 0.0 0 1 0 1
node 3016 2 1 1 1
gene 3 3016 2 0.0 0 1 0 1
node 3017 2 1 1 1
gene 3 3017 2 0.0 0 1 0 1
node 3018 2 1 1 1
gene 3 3018 2 0.0 0 1 0 1
node 3019 2 1 1 1
gene 3 3019 2 0.0 0 1 0 1
node 3020 2 1 1 1
gene 3 3020 2 0.0 0 1 0 1
node 3021 2 1 1 1
gene 3 3021 2 0.0 0 1 0 1
node 3022 2 1 1 1
gene 3 3022 2 0.0 0 1 0 1
node 3023 2 1 1 1
gene 3 3023 2 0.0 0 1 0 1
node 3024 2 1 1 1
gene 3 3024 2 0.0 0 1 0 1
node 3025 2 1 1 1
gene 3 3025 2 0.0 0 1 0 1
node 3026 2 1 1 1
gene 3 3026 2 0.0 0 1 0 1
node 3027 2 1 1 1
gene 3 3027 2 0.0 0 1 0 1
node 3028 2 1 1 1
gene 3 3028 2 0.0 0 1 0 1
node 3029 2 1 1 1
gene 3 3029 2 0.0 0 1 0 1
node 3030 2 1 1 1
gene 3 3030 2 0.0 0 1 0 1
node 3031 2 1 1 1
gene 3 3031 2 0.0 0 1 0 1
node 3032 2 1 1 1
gene 3 3032 2 0.0 0 1 0 1
node 3033 2 1 1 1
gene 3 3033 2 0.0 0 1 0 1
node 3034 2 1 1 1
gene 3 3034 2 0.0 0 1 0 1
node 3035 2 1 1 1
gene 3 3035 2 0.0 0 1 0 1
node 3036 2 1 1 1
gene 3 3036 2 0.0 0 1 0 1
node 3037 2 1 1 1
gene 3 3037 2 0.0 0 1 0 1
node 3038 2 1 1 1
gene 3 3038 2 0.0 0 1 0 1
node 3039 2 1 1 1
gene 3 3039 2 0.0 0 1 0 1
node 3040 2 1 1 1
gene 3 3040 2 0.0 0 1 0 1
node 3041 2 1 1 1
gene 3 3041 2 0.0 0 1 0 1
node 3042 2 1 1 1
gene 3 3042 2 0.0 0 1 0 1
node 3043 2 1 1 1
gene 3 3043 2 0.0 0 1 0 1
node 3044 2 1 1 1
gene 3 3044 2 0.0 0 1 0 1
node 3045 2 1 1 1
gene 3 3045 2 0.0 0 1 0 1
node 3046 2 1 1 1
gene 3 3046 2 0.0 0 1 0 1
node 3047 2 1 1 1
gene 3 3047 2 0.0 0 1 0 1
node 3048 2 1 1 1
gene 3 3048 2 0.0 0 1 0 1
node 3049 2 1 1 1
gene 3 3049 2 0.0 0 1 0 1
node 3050 2 1 1 1
gene 3 3050 2 0.0 0 1 0 1
node 3051 2 1 1 1
gene 3 3051 2 0.0 0 1 0 1
node 3052 2 1 1 1
gene 3 3052 2 0.0 0 1 0 1
node 3053 2 1 1 1
gene 3 3053 2 0.0 0 1 0 1
node 3054 2 1 1 1
gene 3 3054 2 0.0 0 1 0 1
node 3055 2 1 1 1
gene 3 3055 2 0.0 0 1 0 1
node 3056 2 1 1 1
gene 3 3056 2 0.0 0 1 0 1
node 3057 2 1 1 1
gene 3 3057 2 0.0 0 1 0 1
node 3058 2 1 1 1
gene 3 3058 2 0.0 0 1 0 1
node 3059 2 1 1 1
gene 3 3059 2 0.0 0 1 0 1
node 3060 2 1 1 1
gene 3 3060 2 0.0 0 1 0 1
node 3061 2 1 1 1
gene 3 3061 2 0.0 0 1 0 1
node 3062 2 1 1 1
gene 3 3062 2 0.0 0 1 0 1
node 3063 2 1 1 1
gene 3 3063 2 0.0 0 1 0 1
node 3064 2 1 1 1
gene 3 3064 2 0.0 0 1 0 1
node 3065 2 1 1 1
gene 3 3065 2 0.0 0 1 0 1
node 3066 2 1 1 1
gene 3 3066 2 0.0 0 1 0 1
node 3067 2 1 1 1
gene 3 3067 2 0.0 0 1 0 1
node 3068 2 1 1 1
gene 3 3068 2 0.0 0 1 0 1
node 3069 2 1 1 1
gene 3 3069 2 0.0 0 1 0 1
node 3070 2 1 1 1
gene 3 3070 2 0.0 0 1 0 1
node 3071 2 1 1 1
gene 3 3071 2 0.0 0 1 0 1
node 3072 2 1 1 1
gene 3 3072 2 0.0 0 1 0 1
node 3073 2 1 1 1
gene 3 3073 2 0.0 0 1 0 1
node 3074 2 1 1 1
gene 3 3074 2 0.0 0 1 0 1
node 3075 2 1 1 1
gene 3 3075 2 0.0 0 1 0 1
node 3076 2 1 1 1
gene 3 3076 2 0.0 0 1 0 1
node 3077 2 1 1 1
gene 3 3077 2 0.0 0 1 0 1
node 3078 2 1 1 1
gene 3 3078 2 0.0 0 1 0 1
node 3079 2 1 1 1
gene 3 3079 2 0.0 0 1 0 1
node 3080 2 1 1 1
gene 3 3080 2 0.0 0 1 0 1
node 3081 2 1 1 1
gene 3 3081 2 0.0 0 1 0 1
node 3082 2 1 1 1
gene 3 3082 2 0.0 0 1 0 1
node 3083 2 1 1 1
gene 3 3083 2 0.0 0 1 0 1
node 3084 2 1 1 1
gene 3 3084 2 0.0 0 1 0 1
node 3085 2 1 1 1
gene 3 3085 2 0.0 0 1 0 1
node 3086 2 1 1 1
gene 3 3086 2 0.0 0 1 0 1
node 3087 2 1 1 1
gene 3 3087 2 0.0 0 1 0 1
node 3088 2 1 1 1
gene 3 3088 2 0.0 0 1 0 1
node 3089 2 1 1 1
gene 3 3089 2 0.0 0 1 0 1
node 3090 2 1 1 1
gene 3 3090 2 0.0 0 1 0 1
node 3091 2 1 1 1
gene 3 3091 2 0.0 0 1 0 1
node 3092 2 1 1 1
gene 3 3092 2 0.0 0 1 0 1
node 3093 2 1 1 1
gene 3 3093 2 0.0 0 1 0 1
node 3094 2 1 1 1
gene 3 3094 2 0.0 0 1 0 1
node 3095 2 1 1 1
gene 3 3095 2 0.0 0 1 0 1
node 3096 2 1 1 1
gene 3 3096 2 0.0 0 1 0 1
node 3097 2 1 1 1
gene 3 3097 2 0.0 0 1 0 1
node 3098 2 1 1 1
gene 3 3098 2 0.0 0 1 0 1
node 3099 2 1 1 1
gene 3 3099 2 0.0 0 1 0 1
node 3100 2 1 1 1
gene 3 3100 2 0.0 0 1 0 1
node 3101 2 1 1 1
gene 3 3101 2 0.0 0 1 0 1
node 3102 2 1 1 1
gene 3 3102 2 0.0 0 1 0 1
node 3103 2 1 1 1
gene 3 3103 2 0.0 0 1 0 1
node 3104 2 1 1 1
gene 3 3104 2 0.0 0 1 0 1
node 3105 2 1 1 1
gene 3 3105 2 0.0 0 1 0 1
node 3106 2 1 1 1
gene 3 3106 2 0.0 0 1 0 1
node 3107 2 1 1 1
gene 3 3107 2 0.0 0 1 0 1
node 3108 2 1 1 1
gene 3 3108 2 0.0 0 1 0 1
node 3109 2 1 1 1
gene 3 3109 2 0.0 0 1 0 1
node 3110 2 1 1 1
gene 3 3110 2 0.0 0 1 0 1
node 3111 2 1 1 1
gene 3 3111 2 0.0 0 1 0 1
node 3112 2 1 1 1
gene 3 3112 2 0.0 0 1 0 1
node 3113 2 1 1 1
gene 3 3113 2 0.0 0 1 0 1
node 3114 2 1 1 1
gene 3 3114 2 0.0 0 1 0 1
node 3115 2 1 1 1
gene 3 3115 2 0.0 0 1 0 1
node 3116 2 1 1 1
gene 3 3116 2 0.0 0 1 0 1
node 3117 2 1 1 1
gene 3 3117 2 0.0 0 1 0 1
node 3118 2 1 1 1
gene 3 3118 2 0.0 0 1 0 1
node 3119 2 1 1 1
gene 3 3119 2 0.0 0 1 0 1
node 3120 2 1 1 1
gene 3 3120 2 0.0 0 1 0 1
node 3121 2 1 1 1
gene 3 3121 2 0.0 0 1 0 1
node 3122 2 1 1 1
gene 3 3122 2 0.0 0 1 0 1
node 3123 2 1 1 1
gene 3 3123 2 0.0 0 1 0 1
node 3124 2 1 1 1
gene 3 3124 2 0.0 0 1 0 1
node 3125 2 1 1 1
gene 3 3125 2 0.0 0 1 0 1
node 3126 2 1 1 1
gene 3 3126 2 0.0 0 1 0 1
node 3127 2 1 1 1
gene 3 3127 2 0.0 0 1 0 1
node 3128 2 1 1 1
gene 3 3128 2 0.0 0 1 0 1
node 3129 2 1 1 1
gene 3 3129 2 0.0 0 1 0 1
node 3130 2 1 1 1
gene 3 3130 2 0.0 0 1 0 1
node 3131 2 1 1 1
gene 3 3131 2 0.0 0 1 0 1
node 3132 2 1 1 1
gene 3 3132 2 0.0 0 1 0 1
node 3133 2 1 1 1
gene 3 3133 2 0.0 0 1 0 1
node 3134 2 1 1 1
gene 3 3134 2 0.0 0 1 0 1
node 3135 2 1 1 1
gene 3 3135 2 0.0 0 1 0 1
node 3136 2 1 1 1
gene 3 3136 2 0.0 0 1 0 1
node 3137 2 1 1 1
gene 3 3137 2 0.0 0 1 0 1
node 3138 2 1 1 1
gene 3 3138 2 0.0 0 1 0 1
node 3139 2 1 1 1
gene 3 3139 2 0.0 0 1 0 1
node 3140 2 1 1 1
gene 3 3140 2 0.0 0 1 0 1
node 3141 2 1 1 1
gene 3 3141 2 0.0 0 1 0 1
node 3142 2 1 1 1
gene 3 3142 2 0.0 0 1 0 1
node 3143 2 1 1 1
gene 3 3143 2 0.0 0 1 0 1
node 3144 2 1 1 1
gene 3 3144 2 0.0 0 1 0 1
node 3145 2 1 1 1
gene 3 3145 2 0.0 0 1 0 1
node 3146 2 1 1 1
gene 3 3146 2 0.0 0 1 0 1
node 3147 2 1 1 1
gene 3 3147 2 0.0 0 1 0 1
node 3148 2 1 1 1
gene 3 3148 2 0.0 0 1 0 1
node 3149 2 1 1 1
gene 3 3149 2 0.0 0 1 0 1
node 3150 2 1 1 1
gene 3 3150 2 0.0 0 1 0 1
node 3151 2 1 1 1
gene 3 3151 2 0.0 0 1 0 1
node 3152 2 1 1 1
gene 3 3152 2 0.0 0 1 0 1
node 3153 2 1 1 1
gene 3 3153 2 0.0 0 1 0 1
node 3154 2 1 1 1
gene 3 3154 2 0.0 0 1 0 1
node 3155 2 1 1 1
gene 3 3155 2 0.0 0 1 0 1
node 3156 2 1 1 1
gene 3 3156 2 0.0 0 1 0 1
node 3157 2 1 1 1
gene 3 3157 2 0.0 0 1 0 1
node 3158 2 1 1 1
gene 3 3158 2 0.0 0 1 0 1
node 3159 2 1 1 1
gene 3 3159 2 0.0 0 1 0 1
node 3160 2 1 1 1
gene 3 3160 2 0.0 0 1 0 1
node 3161 2 1 1 1
gene 3 3161 2 0.0 0 1 0 1
node 3162 2 1 1 1
gene 3 3162 2 0.0 0 1 0 1
node 3163 2 1 1 1
gene 3 3163 2 0.0 0 1 0 1
node 3164 2 1 1 1
gene 3 3164 2 0.0 0 1 0 1
node 3165 2 1 1 1
gene 3 3165 2 0.0 0 1 0 1
node 3166 2 1 1 1
gene 3 3166 2 0.0 0 1 0 1
node 3167 2 1 1 1
gene 3 3167 2 0.0 0 1 0 1
node 3168 2 1 1 1
gene 3 3168 2 0.0 0 1 0 1
node 3169 2 1 1 1
gene 3 3169 2 0.0 0 1 0 1
node 3170 2 1 1 1
gene 3 3170 2 0.0 0 1 0 1
node 3171 2 1 1 1
gene 3 3171 2 0.0 0 1 0 1
node 3172 2 1 1 1
gene 3 3172 2 0.0 0 1 0 1
node 3173 2 1 1 1
gene 3 3173 2 0.0 0 1 0 1
node 3174 2 1 1 1
gene 3 3174 2 0.0 0 1 0 1
node 3175 2 1 1 1
gene 3 3175 2 0.0 0 1 0 1
node 3176 2 1 1 1
gene 3 3176 2 0.0 0 1 0 1
node 3177 2 1 1 1
gene 3 3177 2 0.0 0 1 0 1
node 3178 2 1 1 1
gene 3 3178 2 0.0 0 1 0 1
node 3179 2 1 1 1
gene 3 3179 2 0.0 0 1 0 1
node 3180 2 1 1 1
gene 3 3180 2 0.0 0 1 0 1
node 3181 2 1 1 1
gene 3 3181 2 0.0 0 1 0 1
node 3182 2 1 1 1
gene 3 3182 2 0.0 0 1 0 1
node 3183 2 1 1 1
gene 3 3183 2 0.0 0 1 0 1
node 3184 2 1 1 1
gene 3 3184 2 0.0 0 1 0 1
node 3185 2 1 1 1
gene 3 3185 2 0.0 0 1 0 1
node 3186 2 1 1 1
gene 3 3186 2 0.0 0 1 0 1
node 3187 2 1 1 1
gene 3 3187 2 0.0 0 1 0 1
node 3188 2 1 1 1
gene 3 3188 2 0.0 0 1 0 1
node 3189 2 1 1 1
gene 3 3189 2 0.0 0 1 0 1
node 3190 2 1 1 1
gene 3 3190 2 0.0 0 1 0 1
node 3191 2 1 1 1
gene 3 3191 2 0.0 0 1 0 1
node 3192 2 1 1 1
gene 3 3192 2 0.0 0 1 0 1
node 3193 2 1 1 1
gene 3 3193 2 0.0 0 1 0 1
node 3194 2 1 1 1
gene 3 3194 2 0.0 0 1 0 1
node 3195 2 1 1 1
gene 3 3195 2 0.0 0 1 0 1
node 3196 2 1 1 1
gene 3 3196 2 0.0 0 1 0 1
node 3197 2 1 1 1
gene 3 3197 2 0.0 0 1 0 1
node 3198 2 1 1 1
gene 3 3198 2 0.0 0 1 0 1
node 3199 2 1 1 1
gene 3 3199 2 0.0 0 1 0 1
node 3200 2 1 1 1
gene 3 3200 2 0.0 0 1 0 1
node 3201 2 1 1 1
gene 3 3201 2 0.0 0 1 0 1
node 3202 2 1 1 1
gene 3 3202 2 0.0 0 1 0 1
node 3203 2 1 1 1
gene 3 3203 2 0.0 0 1 0 1
node 3204 2 1 1 1
gene 3 3204 2 0.0 0 1 0 1
node 3205 2 1 1 1
gene 3 3205 2 0.0 0 1 0 1
node 3206 2 1 1 1
gene 3 3206 2 0.0 0 1 0 1
node 3207 2 1 1 1
gene 3 3207 2 0.0 0 1 0 1
node 3208 2 1 1 1
gene 3 3208 2 0.0 0 1 0 1
node 3209 2 1 1 1
gene 3 3209 2 0.0 0 1 0 1
node 3210 2 1 1 1
gene 3 3210 2 0.0 0 1 0 1
node 3211 2 1 1 1
gene 3 3211 2 0.0 0 1 0 1
node 3212 2 1 1 1
gene 3 3212 2 0.0 0 1 0 1
node 3213 2 1 1 1
gene 3 3213 2 0.0 0 1 0 1
node 3214 2 1 1 1
gene 3 3214 2 0.0 0 1 0 1
node 3215 2 1 1 1
gene 3 3215 2 0.0 0 1 0 1
node 3216 2 1 1 1
gene 3 3216 2 0.0 0 1 0 1
node 3217 2 1 1 1
gene 3 3217 2 0.0 0 1 0 1
node 3218 2 1 1 1
gene 3 3218 2 0.0 0 1 0 1
node 3219 2 1 1 1
gene 3 3219 2 0.0 0 1 0 1
node 3220 2 1 1 1
gene 3 3220 2 0.0 0 1 0 1
node 3221 2 1 1 1
gene 3 3221 2 0.0 0 1 0 1
node 3222 2 1 1 1
gene 3 3222 2 0.0 0 1 0 1
node 3223 2 1 1 1
gene 3 3223 2 0.0 0 1 0 1
node 3224 2 1 1 1
gene 3 3224 2 0.0 0 1 0 1
node 3225 2 1 1 1
gene 3 3225 2 0.0 0 1 0 1
node 3226 2 1 1 1
gene 3 3226 2 0.0 0 1 0 1
node 3227 2 1 1 1
gene 3 3227 2 0.0 0 1 0 1
node 3228 2 1 1 1
gene 3 3228 2 0.0 0 1 0 1
node 3229 2 1 1 1
gene 3 3229 2 0.0 0 1 0 1
node 3230 2 1 1 1
gene 3 3230 2 0.0 0 1 0 1
node 3231 2 1 1 1
gene 3 3231 2 0.0 0 1 0 1
node 3232 2 1 1 1
gene 3 3232 2 0.0 0 1 0 1
node 3233 2 1 1 1
gene 3 3233 2 0.0 0 1 0 1
node 3234 2 1 1 1
gene 3 3234 2 0.0 0 1 0 1
node 3235 2 1 1 1
gene 3 3235 2 0.0 0 1 0 1
node 3236 2 1 1 1
gene 3 3236 2 0.0 0 1 0 1
node 3237 2 1 1 1
gene 3 3237 2 0.0 0 1 0 1
node 3238 2 1 1 1
gene 3 3238 2 0.0 0 1 0 1
node 3239 2 1 1 1
gene 3 3239 2 0.0 0 1 0 1
node 3240 2 1 1 1
gene 3 3240 2 0.0 0 1 0 1
node 3241 2 1 1 1
gene 3 3241 2 0.0 0 1 0 1
node 3242 2 1 1 1
gene 3 3242 2 0.0 0 1 0 1
node 3243 2 1 1 1
gene 3 3243 2 0.0 0 1 0 1
node 3244 2 1 1 1
gene 3 3244 2 0.0 0 1 0 1
node 3245 2 1 1 1
gene 3 3245 2 0.0 0 1 0 1
node 3246 2 1 1 1
gene 3 3246 2 0.0 0 1 0 1
node 3247 2 1 1 1
gene 3 3247 2 0.0 0 1 0 1
node 3248 2 1 1 1
gene 3 3248 2 0.0 0 1 0 1
node 3249 2 1 1 1
gene 3 3249 2 0.0 0 1 0 1
node 3250 2 1 1 1
gene 3 3250 2 0.0 0 1 0 1
node 3251 2 1 1 1
gene 3 3251 2 0.0 0 1 0 1
node 3252 2 1 1 1
gene 3 3252 2 0.0 0 1 0 1
node 3253 2 1 1 1
gene 3 3253 2 0.0 0 1 0 1
node 3254 2 1 1 1
gene 3 3254 2 0.0 0 1 0 1
node 3255 2 1 1 1
gene 3 3255 2 0.0 0 1 0 1
node 3256 2 1 1 1
gene 3 3256 2 0.0 0 1 0 1
node 3257 2 1 1 1
gene 3 3257 2 0.0 0 1 0 1
node 3258 2 1 1 1
gene 3 3258 2 0.0 0 1 0 1
node 3259 2 1 1 1
gene 3 3259 2 0.0 0 1 0 1
node 3260 2 1 1 1
gene 3 3260 2 0.0 0 1 0 1
node 3261 2 1 1 1
gene 3 3261 2 0.0 0 1 0 1
node 3262 2 1 1 1
gene 3 3262 2 0.0 0 1 0 1
node 3263 2 1 1 1
gene 3 3263 2 0.0 0 1 0 1
node 3264 2 1 1 1
gene 3 3264 2 0.0 0 1 0 1
node 3265 2 1 1 1
gene 3 3265 2 0.0 0 1 0 1
node 3266 2 1 1 1
gene 3 3266 2 0.0 0 1 0 1
node 3267 2 1 1 1
gene 3 3267 2 0.0 0 1 0 1
node 3268 2 1 1 1
gene 3 3268 2 0.0 0 1 0 1
node 3269 2 1 1 1
gene 3 3269 2 0.0 0 1 0 1
node 3270 2 1 1 1
gene 3 3270 2 0.0 0 1 0 1
node 3271 2 1 1 1
gene 3 3271 2 0.0 0 1 0 1
node 3272 2 1 1 1
gene 3 3272 2 0.0 0 1 0 1
node 3273 2 1 1 1
gene 3 3273 2 0.0 0 1 0 1
node 3274 2 1 1 1
gene 3 3274 2 0.0 0 1 0 1
node 3275 2 1 1 1
gene 3 3275 2 0.0 0 1 0 1
node 3276 2 1 1 1
gene 3 3276 2 0.0 0 1 0 1
node 3277 2 1 1 1
gene 3 3277 2 0.0 0 1 0 1
node 3278 2 1 1 1
gene 3 3278 2 0.0 0 1 0 1
node 3279 2 1 1 1
gene 3 3279 2 0.0 0 1 0 1
node 3280 2 1 1 1
gene 3 3280 2 0.0 0 1 0 1
node 3281 2 1 1 1
gene 3 3281 2 0.0 0 1 0 1
node 3282 2 1 1 1
gene 3 3282 2 0.0 0 1 0 1
node 3283 2 1 1 1
gene 3 3283 2 0.0 0 1 0 1
node 3284 2 1 1 1
gene 3 3284 2 0.0 0 1 0 1
node 3285 2 1 1 1
gene 3 3285 2 0.0 0 1 0 1
node 3286 2 1 1 1
gene 3 3286 2 0.0 0 1 0 1
node 3287 2 1 1 1
gene 3 3287 2 0.0 0 1 0 1
node 3288 2 1 1 1
gene 3 3288 2 0.0 0 1 0 1
node 3289 2 1 1 1
gene 3 3289 2 0.0 0 1 0 1
node 3290 2 1 1 1
gene 3 3290 2 0.0 0 1 0 1
node 3291 2 1 1 1
gene 3 3291 2 0.0 0 1 0 1
node 3292 2 1 1 1
gene 3 3292 2 0.0 0 1 0 1
node 3293 2 1 1 1
gene 3 3293 2 0.0 0 1 0 1
node 3294 2 1 1 1
gene 3 3294 2 0.0 0 1 0 1
node 3295 2 1 1 1
gene 3 3295 2 0.0 0 1 0 1
node 3296 2 1 1 1
gene 3 3296 2 0.0 0 1 0 1
node 3297 2 1 1 1
gene 3 3297 2 0.0 0 1 0 1
node 3298 2 1 1 1
gene 3 3298 2 0.0 0 1 0 1
node 3299 2 1 1 1
gene 3 3299 2 0.0 0 1 0 1
node 3300 2 1 1 1
gene 3 3300 2 0.0 0 1 0 1
node 3301 2 1 1 1
gene 3 3301 2 0.0 0 1 0 1
node 3302 2 1 1 1
gene 3 3302 2 0.0 0 1 0 1
node 3303 2 1 1 1
gene 3 3303 2 0.0 0 1 0 1
node 3304 2 1 1 1
gene 3 3304 2 0.0 0 1 0 1
node 3305 2 1 1 1
gene 3 3305 2 0.0 0 1 0 1
node 3306 2 1 1 1
gene 3 3306 2 0.0 0 1 0 1
node 3307 2 1 1 1
gene 3 3307 2 0.0 0 1 0 1
node 3308 2 1 1 1
gene 3 3308 2 0.0 0 1 0 1
node 3309 2 1 1 1
gene 3 3309 2 0.0 0 1 0 1
node 3310 2 1 1 1
gene 3 3310 2 0.0 0 1 0 1
node 3311 2 1 1 1
gene 3 3311 2 0.0 0 1 0 1
node 3312 2 1 1 1
gene 3 3312 2 0.0 0 1 0 1
node 3313 2 1 1 1
gene 3 3313 2 0.0 0 1 0 1
node 3314 2 1 1 1
gene 3 3314 2 0.0 0 1 0 1
node 3315 2 1 1 1
gene 3 3315 2 0.0 0 1 0 1
node 3316 2 1 1 1
gene 3 3316 2 0.0 0 1 0 1
node 3317 2 1 1 1
gene 3 3317 2 0.0 0 1 0 1
node 3318 2 1 1 1
gene 3 3318 2 0.0 0 1 0 1
node 3319 2 1 1 1
gene 3 3319 2 0.0 0 1 0 1
node 3320 2 1 1 1
gene 3 3320 2 0.0 0 1 0 1
node 3321 2 1 1 1
gene 3 3321 2 0.0 0 1 0 1
node 3322 2 1 1 1
gene 3 3322 2 0.0 0 1 0 1
node 3323 2 1 1 1
gene 3 3323 2 0.0 0 1 0 1
node 3324 2 1 1 1
gene 3 3324 2 0.0 0 1 0 1
node 3325 2 1 1 1
gene 3 3325 2 0.0 0 1 0 1
node 3326 2 1 1 1
gene 3 3326 2 0.0 0 1 0 1
node 3327 2 1 1 1
gene 3 3327 2 0.0 0 1 0 1
node 3328 2 1 1 1
gene 3 3328 2 0.0 0 1 0 1
node 3329 2 1 1 1
gene 3 3329 2 0.0 0 1 0 1
node 3330 2 1 1 1
gene 3 3330 2 0.0 0 1 0 1
node 3331 2 1 1 1
gene 3 3331 2 0.0 0 1 0 1
node 3332 2 1 1 1
gene 3 3332 2 0.0 0 1 0 1
node 3333 2 1 1 1
gene 3 3333 2 0.0 0 1 0 1
node 3334 2 1 1 1
gene 3 3334 2 0.0 0 1 0 1
node 3335 2 1 1 1
gene 3 3335 2 0.0 0 1 0 1
node 3336 2 1 1 1
gene 3 3336 2 0.0 0 1 0 1
node 3337 2 1 1 1
gene 3 3337 2 0.0 0 1 0 1
node 3338 2 1 1 1
gene 3 3338 2 0.0 0 1 0 1
node 3339 2 1 1 1
gene 3 3339 2 0.0 0 1 0 1
node 3340 2 1 1 1
gene 3 3340 2 0.0 0 1 0 1
node 3341 2 1 1 1
gene 3 3341 2 0.0 0 1 0 1
node 3342 2 1 1 1
gene 3 3342 2 0.0 0 1 0 1
node 3343 2 1 1 1
gene 3 3343 2 0.0 0 1 0 1
node 3344 2 1 1 1
gene 3 3344 2 0.0 0 1 0 1
node 3345 2 1 1 1
gene 3 3345 2 0.0 0 1 0 1
node 3346 2 1 1 1
gene 3 3346 2 0.0 0 1 0 1
node 3347 2 1 1 1
gene 3 3347 2 0.0 0 1 0 1
node 3348 2 1 1 1
gene 3 3348 2 0.0 0 1 0 1
node 3349 2 1 1 1
gene 3 3349 2 0.0 0 1 0 1
node 3350 2 1 1 1
gene 3 3350 2 0.0 0 1 0 1
node 3351 2 1 1 1
gene 3 3351 2 0.0 0 1 0 1
node 3352 2 1 1 1
gene 3 3352 2 0.0 0 1 0 1
node 3353 2 1 1 1
gene 3 3353 2 0.0 0 1 0 1
node 3354 2 1 1 1
gene 3 3354 2 0.0 0 1 0 1
node 3355 2 1 1 1
gene 3 3355 2 0.0 0 1 0 1
node 3356 2 1 1 1
gene 3 3356 2 0.0 0 1 0 1
node 3357 2 1 1 1
gene 3 3357 2 0.0 0 1 0 1
node 3358 2 1 1 1
gene 3 3358 2 0.0 0 1 0 1
node 3359 2 1 1 1
gene 3 3359 2 0.0 0 1 0 1
node 3360 2 1 1 1
gene 3 3360 2 0.0 0 1 0 1
node 3361 2 1 1 1
gene 3 3361 2 0.0 0 1 0 1
node 3362 2 1 1 1
gene 3 3362 2 0.0 0 1 0 1
node 3363 2 1 1 1
gene 3 3363 2 0.0 0 1 0 1
node 3364 2 1 1 1
gene 3 3364 2 0.0 0 1 0 1
node 3365 2 1 1 1
gene 3 3365 2 0.0 0 1 0 1
node 3366 2 1 1 1
gene 3 3366 2 0.0 0 1 0 1
node 3367 2 1 1 1
gene 3 3367 2 0.0 0 1 0 1
node 3368 2 1 1 1
gene 3 3368 2 0.0 0 1 0 1
node 3369 2 1 1 1
gene 3 3369 2 0.0 0 1 0 1
node 3370 2 1 1 1
gene 3 3370 2 0.0 0 1 0 1
node 3371 2 1 1 1
gene 3 3371 2 0.0 0 1 0 1
node 3372 2 1 1 1
gene 3 3372 2 0.0 0 1 0 1
node 3373 2 1 1 1
gene 3 3373 2 0.0 0 1 0 1
node 3374 2 1 1 1
gene 3 3374 2 0.0 0 1 0 1
node 3375 2 1 1 1
gene 3 3375 2 0.0 0 1 0 1
node 3376 2 1 1 1
gene 3 3376 2 0.0 0 1 0 1
node 3377 2 1 1 1
gene 3 3377 2 0.0 0 1 0 1
node 3378 2 1 1 1
gene 3 3378 2 0.0 0 1 0 1
node 3379 2 1 1 1
gene 3 3379 2 0.0 0 1 0 1
node 3380 2 1 1 1
gene 3 3380 2 0.0 0 1 0 1
node 3381 2 1 1 1
gene 3 3381 2 0.0 0 1 0 1
node 3382 2 1 1 1
gene 3 3382 2 0.0 0 1 0 1
node 3383 2 1 1 1
gene 3 3383 2 0.0 0 1 0 1
node 3384 2 1 1 1
gene 3 3384 2 0.0 0 1 0 1
node 3385 2 1 1 1
gene 3 3385 2 0.0 0 1 0 1
node 3386 2 1 1 1
gene 3 3386 2 0.0 0 1 0 1
node 3387 2 1 1 1
gene 3 3387 2 0.0 0 1 0 1
node 3388 2 1 1 1
gene 3 3388 2 0.0 0 1 0 1
node 3389 2 1 1 1
gene 3 3389 2 0.0 0 1 0 1
node 3390 2 1 1 1
gene 3 3390 2 0.0 0 1 0 1
node 3391 2 1 1 1
gene 3 3391 2 0.0 0 1 0 1
node 3392 2 1 1 1
gene 3 3392 2 0.0 0 1 0 1
node 3393 2 1 1 1
gene 3 3393 2 0.0 0 1 0 1
node 3394 2 1 1 1
gene 3 3394 2 0.0 0 1 0 1
node 3395 2 1 1 1
gene 3 3395 2 0.0 0 1 0 1
node 3396 2 1 1 1
gene 3 3396 2 0.0 0 1 0 1
node 3397 2 1 1 1
gene 3 3397 2 0.0 0 1 0 1
node 3398 2 1 1 1
gene 3 3398 2 0.0 0 1 0 1
node 3399 2 1 1 1
gene 3 3399 2 0.0 0 1 0 1
node 3400 2 1 1 1
gene 3 3400 2 0.0 0 1 0 1
node 3401 2 1 1 1
gene 3 3401 2 0.0 0 1 0 1
node 3402 2 1 1 1
gene 3 3402 2 0.0 0 1 0 1


node 3403 3 1 1 1
gene 4 3403 2 0.0 0 1 0 1
node 3404 3 1 1 1
gene 4 3404 2 0.0 0 1 0 1
node 3405 3 1 1 1
gene 4 3405 2 0.0 0 1 0 1
node 3406 3 1 1 1
gene 4 3406 2 0.0 0 1 0 1
node 3407 3 1 1 1
gene 4 3407 2 0.0 0 1 0 1
node 3408 3 1 1 1
gene 4 3408 2 0.0 0 1 0 1
node 3409 3 1 1 1
gene 4 3409 2 0.0 0 1 0 1
node 3410 3 1 1 1
gene 4 3410 2 0.0 0 1 0 1
node 3411 3 1 1 1
gene 4 3411 2 0.0 0 1 0 1
node 3412 3 1 1 1
gene 4 3412 2 0.0 0 1 0 1
node 3413 3 1 1 1
gene 4 3413 2 0.0 0 1 0 1
node 3414 3 1 1 1
gene 4 3414 2 0.0 0 1 0 1
node 3415 3 1 1 1
gene 4 3415 2 0.0 0 1 0 1
node 3416 3 1 1 1
gene 4 3416 2 0.0 0 1 0 1
node 3417 3 1 1 1
gene 4 3417 2 0.0 0 1 0 1
node 3418 3 1 1 1
gene 4 3418 2 0.0 0 1 0 1
node 3419 3 1 1 1
gene 4 3419 2 0.0 0 1 0 1
node 3420 3 1 1 1
gene 4 3420 2 0.0 0 1 0 1
node 3421 3 1 1 1
gene 4 3421 2 0.0 0 1 0 1
node 3422 3 1 1 1
gene 4 3422 2 0.0 0 1 0 1
node 3423 3 1 1 1
gene 4 3423 2 0.0 0 1 0 1
node 3424 3 1 1 1
gene 4 3424 2 0.0 0 1 0 1
node 3425 3 1 1 1
gene 4 3425 2 0.0 0 1 0 1
node 3426 3 1 1 1
gene 4 3426 2 0.0 0 1 0 1
node 3427 3 1 1 1
gene 4 3427 2 0.0 0 1 0 1
node 3428 3 1 1 1
gene 4 3428 2 0.0 0 1 0 1
node 3429 3 1 1 1
gene 4 3429 2 0.0 0 1 0 1
node 3430 3 1 1 1
gene 4 3430 2 0.0 0 1 0 1
node 3431 3 1 1 1
gene 4 3431 2 0.0 0 1 0 1
node 3432 3 1 1 1
gene 4 3432 2 0.0 0 1 0 1
node 3433 3 1 1 1
gene 4 3433 2 0.0 0 1 0 1
node 3434 3 1 1 1
gene 4 3434 2 0.0 0 1 0 1
node 3435 3 1 1 1
gene 4 3435 2 0.0 0 1 0 1
node 3436 3 1 1 1
gene 4 3436 2 0.0 0 1 0 1
node 3437 3 1 1 1
gene 4 3437 2 0.0 0 1 0 1
node 3438 3 1 1 1
gene 4 3438 2 0.0 0 1 0 1
node 3439 3 1 1 1
gene 4 3439 2 0.0 0 1 0 1
node 3440 3 1 1 1
gene 4 3440 2 0.0 0 1 0 1
node 3441 3 1 1 1
gene 4 3441 2 0.0 0 1 0 1
node 3442 3 1 1 1
gene 4 3442 2 0.0 0 1 0 1
node 3443 3 1 1 1
gene 4 3443 2 0.0 0 1 0 1
node 3444 3 1 1 1
gene 4 3444 2 0.0 0 1 0 1
node 3445 3 1 1 1
gene 4 3445 2 0.0 0 1 0 1
node 3446 3 1 1 1
gene 4 3446 2 0.0 0 1 0 1
node 3447 3 1 1 1
gene 4 3447 2 0.0 0 1 0 1
node 3448 3 1 1 1
gene 4 3448 2 0.0 0 1 0 1
node 3449 3 1 1 1
gene 4 3449 2 0.0 0 1 0 1
node 3450 3 1 1 1
gene 4 3450 2 0.0 0 1 0 1
node 3451 3 1 1 1
gene 4 3451 2 0.0 0 1 0 1
node 3452 3 1 1 1
gene 4 3452 2 0.0 0 1 0 1
node 3453 3 1 1 1
gene 4 3453 2 0.0 0 1 0 1
node 3454 3 1 1 1
gene 4 3454 2 0.0 0 1 0 1
node 3455 3 1 1 1
gene 4 3455 2 0.0 0 1 0 1
node 3456 3 1 1 1
gene 4 3456 2 0.0 0 1 0 1
node 3457 3 1 1 1
gene 4 3457 2 0.0 0 1 0 1
node 3458 3 1 1 1
gene 4 3458 2 0.0 0 1 0 1
node 3459 3 1 1 1
gene 4 3459 2 0.0 0 1 0 1
node 3460 3 1 1 1
gene 4 3460 2 0.0 0 1 0 1
node 3461 3 1 1 1
gene 4 3461 2 0.0 0 1 0 1
node 3462 3 1 1 1
gene 4 3462 2 0.0 0 1 0 1
node 3463 3 1 1 1
gene 4 3463 2 0.0 0 1 0 1
node 3464 3 1 1 1
gene 4 3464 2 0.0 0 1 0 1
node 3465 3 1 1 1
gene 4 3465 2 0.0 0 1 0 1
node 3466 3 1 1 1
gene 4 3466 2 0.0 0 1 0 1
node 3467 3 1 1 1
gene 4 3467 2 0.0 0 1 0 1
node 3468 3 1 1 1
gene 4 3468 2 0.0 0 1 0 1
node 3469 3 1 1 1
gene 4 3469 2 0.0 0 1 0 1
node 3470 3 1 1 1
gene 4 3470 2 0.0 0 1 0 1
node 3471 3 1 1 1
gene 4 3471 2 0.0 0 1 0 1
node 3472 3 1 1 1
gene 4 3472 2 0.0 0 1 0 1
node 3473 3 1 1 1
gene 4 3473 2 0.0 0 1 0 1
node 3474 3 1 1 1
gene 4 3474 2 0.0 0 1 0 1
node 3475 3 1 1 1
gene 4 3475 2 0.0 0 1 0 1
node 3476 3 1 1 1
gene 4 3476 2 0.0 0 1 0 1
node 3477 3 1 1 1
gene 4 3477 2 0.0 0 1 0 1
node 3478 3 1 1 1
gene 4 3478 2 0.0 0 1 0 1
node 3479 3 1 1 1
gene 4 3479 2 0.0 0 1 0 1
node 3480 3 1 1 1
gene 4 3480 2 0.0 0 1 0 1
node 3481 3 1 1 1
gene 4 3481 2 0.0 0 1 0 1
node 3482 3 1 1 1
gene 4 3482 2 0.0 0 1 0 1
node 3483 3 1 1 1
gene 4 3483 2 0.0 0 1 0 1
node 3484 3 1 1 1
gene 4 3484 2 0.0 0 1 0 1
node 3485 3 1 1 1
gene 4 3485 2 0.0 0 1 0 1
node 3486 3 1 1 1
gene 4 3486 2 0.0 0 1 0 1
node 3487 3 1 1 1
gene 4 3487 2 0.0 0 1 0 1
node 3488 3 1 1 1
gene 4 3488 2 0.0 0 1 0 1
node 3489 3 1 1 1
gene 4 3489 2 0.0 0 1 0 1
node 3490 3 1 1 1
gene 4 3490 2 0.0 0 1 0 1
node 3491 3 1 1 1
gene 4 3491 2 0.0 0 1 0 1
node 3492 3 1 1 1
gene 4 3492 2 0.0 0 1 0 1
node 3493 3 1 1 1
gene 4 3493 2 0.0 0 1 0 1
node 3494 3 1 1 1
gene 4 3494 2 0.0 0 1 0 1
node 3495 3 1 1 1
gene 4 3495 2 0.0 0 1 0 1
node 3496 3 1 1 1
gene 4 3496 2 0.0 0 1 0 1
node 3497 3 1 1 1
gene 4 3497 2 0.0 0 1 0 1
node 3498 3 1 1 1
gene 4 3498 2 0.0 0 1 0 1
node 3499 3 1 1 1
gene 4 3499 2 0.0 0 1 0 1
node 3500 3 1 1 1
gene 4 3500 2 0.0 0 1 0 1
node 3501 3 1 1 1
gene 4 3501 2 0.0 0 1 0 1
node 3502 3 1 1 1
gene 4 3502 2 0.0 0 1 0 1


node 3503 4 1 1 1
gene 5 3503 2 0.0 0 1 0 1
node 3504 4 1 1 1
gene 5 3504 2 0.0 0 1 0 1
node 3505 4 1 1 1
gene 5 3505 2 0.0 0 1 0 1
node 3506 4 1 1 1
gene 5 3506 2 0.0 0 1 0 1
node 3507 4 1 1 1
gene 5 3507 2 0.0 0 1 0 1
node 3508 4 1 1 1
gene 5 3508 2 0.0 0 1 0 1
node 3509 4 1 1 1
gene 5 3509 2 0.0 0 1 0 1
node 3510 4 1 1 1
gene 5 3510 2 0.0 0 1 0 1
node 3511 4 1 1 1
gene 5 3511 2 0.0 0 1 0 1
node 3512 4 1 1 1
gene 5 3512 2 0.0 0 1 0 1
node 3513 4 1 1 1
gene 5 3513 2 0.0 0 1 0 1
node 3514 4 1 1 1
gene 5 3514 2 0.0 0 1 0 1
node 3515 4 1 1 1
gene 5 3515 2 0.0 0 1 0 1
node 3516 4 1 1 1
gene 5 3516 2 0.0 0 1 0 1
node 3517 4 1 1 1
gene 5 3517 2 0.0 0 1 0 1
node 3518 4 1 1 1
gene 5 3518 2 0.0 0 1 0 1
node 3519 4 1 1 1
gene 5 3519 2 0.0 0 1 0 1
node 3520 4 1 1 1
gene 5 3520 2 0.0 0 1 0 1
node 3521 4 1 1 1
gene 5 3521 2 0.0 0 1 0 1
node 3522 4 1 1 1
gene 5 3522 2 0.0 0 1 0 1


node 3523 5 1 1 1
gene 6 3523 2 0.0 0 1 0 1
node 3524 5 1 1 1
gene 6 3524 2 0.0 0 1 0 1
node 3525 5 1 1 1
gene 6 3525 2 0.0 0 1 0 1
node 3526 5 1 1 1
gene 6 3526 2 0.0 0 1 0 1
node 3527 5 1 1 1
gene 6 3527 2 0.0 0 1 0 1
node 3528 5 1 1 1
gene 6 3528 2 0.0 0 1 0 1
node 3529 5 1 1 1
gene 6 3529 2 0.0 0 1 0 1
node 3530 5 1 1 1
gene 6 3530 2 0.0 0 1 0 1
node 3531 5 1 1 1
gene 6 3531 2 0.0 0 1 0 1
node 3532 5 1 1 1
gene 6 3532 2 0.0 0 1 0 1
node 3533 5 1 1 1
gene 6 3533 2 0.0 0 1 0 1
node 3534 5 1 1 1
gene 6 3534 2 0.0 0 1 0 1
node 3535 5 1 1 1
gene 6 3535 2 0.0 0 1 0 1
node 3536 5 1 1 1
gene 6 3536 2 0.0 0 1 0 1
node 3537 5 1 1 1
gene 6 3537 2 0.0 0 1 0 1
node 3538 5 1 1 1
gene 6 3538 2 0.0 0 1 0 1
node 3539 5 1 1 1
gene 6 3539 2 0.0 0 1 0 1
node 3540 5 1 1 1
gene 6 3540 2 0.0 0 1 0 1
node 3541 5 1 1 1
gene 6 3541 2 0.0 0 1 0 1
node 3542 5 1 1 1
gene 6 3542 2 0.0 0 1 0 1
node 3543 5 1 1 1
gene 6 3543 2 0.0 0 1 0 1
node 3544 5 1 1 1
gene 6 3544 2 0.0 0 1 0 1
node 3545 5 1 1 1
gene 6 3545 2 0.0 0 1 0 1
node 3546 5 1 1 1
gene 6 3546 2 0.0 0 1 0 1
node 3547 5 1 1 1
gene 6 3547 2 0.0 0 1 0 1
node 3548 5 1 1 1
gene 6 3548 2 0.0 0 1 0 1
node 3549 5 1 1 1
gene 6 3549 2 0.0 0 1 0 1
node 3550 5 1 1 1
gene 6 3550 2 0.0 0 1 0 1
node 3551 5 1 1 1
gene 6 3551 2 0.0 0 1 0 1
node 3552 5 1 1 1
gene 6 3552 2 0.0 0 1 0 1
node 3553 5 1 1 1
gene 6 3553 2 0.0 0 1 0 1
node 3554 5 1 1 1
gene 6 3554 2 0.0 0 1 0 1
node 3555 5 1 1 1
gene 6 3555 2 0.0 0 1 0 1
node 3556 5 1 1 1
gene 6 3556 2 0.0 0 1 0 1
node 3557 5 1 1 1
gene 6 3557 2 0.0 0 1 0 1
node 3558 5 1 1 1
gene 6 3558 2 0.0 0 1 0 1
node 3559 5 1 1 1
gene 6 3559 2 0.0 0 1 0 1
node 3560 5 1 1 1
gene 6 3560 2 0.0 0 1 0 1
node 3561 5 1 1 1
gene 6 3561 2 0.0 0 1 0 1
node 3562 5 1 1 1
gene 6 3562 2 0.0 0 1 0 1
node 3563 5 1 1 1
gene 6 3563 2 0.0 0 1 0 1
node 3564 5 1 1 1
gene 6 3564 2 0.0 0 1 0 1
node 3565 5 1 1 1
gene 6 3565 2 0.0 0 1 0 1
node 3566 5 1 1 1
gene 6 3566 2 0.0 0 1 0 1
node 3567 5 1 1 1
gene 6 3567 2 0.0 0 1 0 1
node 3568 5 1 1 1
gene 6 3568 2 0.0 0 1 0 1
node 3569 5 1 1 1
gene 6 3569 2 0.0 0 1 0 1
node 3570 5 1 1 1
gene 6 3570 2 0.0 0 1 0 1
node 3571 5 1 1 1
gene 6 3571 2 0.0 0 1 0 1
node 3572 5 1 1 1
gene 6 3572 2 0.0 0 1 0 1


node 3573 6 1 1 1
gene 7 3573 2 0.0 0 1 0 1
node 3574 6 1 1 1
gene 7 3574 2 0.0 0 1 0 1
node 3575 6 1 1 1
gene 7 3575 2 0.0 0 1 0 1
node 3576 6 1 1 1
gene 7 3576 2 0.0 0 1 0 1
node 3577 6 1 1 1
gene 7 3577 2 0.0 0 1 0 1
node 3578 6 1 1 1
gene 7 3578 2 0.0 0 1 0 1
node 3579 6 1 1 1
gene 7 3579 2 0.0 0 1 0 1
node 3580 6 1 1 1
gene 7 3580 2 0.0 0 1 0 1
node 3581 6 1 1 1
gene 7 3581 2 0.0 0 1 0 1
node 3582 6 1 1 1
gene 7 3582 2 0.0 0 1 0 1
node 3583 6 1 1 1
gene 7 3583 2 0.0 0 1 0 1
node 3584 6 1 1 1
gene 7 3584 2 0.0 0 1 0 1
node 3585 6 1 1 1
gene 7 3585 2 0.0 0 1 0 1
node 3586 6 1 1 1
gene 7 3586 2 0.0 0 1 0 1
node 3587 6 1 1 1
gene 7 3587 2 0.0 0 1 0 1
node 3588 6 1 1 1
gene 7 3588 2 0.0 0 1 0 1
node 3589 6 1 1 1
gene 7 3589 2 0.0 0 1 0 1
node 3590 6 1 1 1
gene 7 3590 2 0.0 0 1 0 1
node 3591 6 1 1 1
gene 7 3591 2 0.0 0 1 0 1
node 3592 6 1 1 1
gene 7 3592 2 0.0 0 1 0 1


node 3593 0 0 2 0
gene 8 2 3593 0.0 0 1 0 1
node 3594 0 0 2 0
gene 8 2 3594 0.0 0 1 0 1
node 3595 0 0 2 0
gene 8 2 3595 0.0 0 1 0 1
node 3596 0 0 2 0
gene 8 2 3596 0.0 0 1 0 1
node 3597 0 0 2 0
gene 8 2 3597 0.0 0 1 0 1
node 3598 0 0 2 0
gene 8 2 3598 0.0 0 1 0 1
node 3599 0 0 2 0
gene 8 2 3599 0.0 0 1 0 1
node 3600 0 0 2 0
gene 8 2 3600 0.0 0 1 0 1
node 3601 0 0 2 0
gene 8 2 3601 0.0 0 1 0 1
node 3602 0 0 2 0
gene 8 2 3602 0.0 0 1 0 1
node 3603 0 0 2 0
gene 8 2 3603 0.0 0 1 0 1
node 3604 0 0 2 0
gene 8 2 3604 0.0 0 1 0 1
node 3605 0 0 2 0
gene 8 2 3605 0.0 0 1 0 1
node 3606 0 0 2 0
gene 8 2 3606 0.0 0 1 0 1
node 3607 0 0 2 0
gene 8 2 3607 0.0 0 1 0 1
node 3608 0 0 2 0
gene 8 2 3608 0.0 0 1 0 1
node 3609 0 0 2 0
gene 8 2 3609 0.0 0 1 0 1
node 3610 0 0 2 0
gene 8 2 3610 0.0 0 1 0 1
node 3611 0 0 2 0
gene 8 2 3611 0.0 0 1 0 1
node 3612 0 0 2 0
gene 8 2 3612 0.0 0 1 0 1
node 3613 0 0 2 0
gene 8 2 3613 0.0 0 1 0 1
node 3614 0 0 2 0
gene 8 2 3614 0.0 0 1 0 1
node 3615 0 0 2 0
gene 8 2 3615 0.0 0 1 0 1
node 3616 0 0 2 0
gene 8 2 3616 0.0 0 1 0 1
node 3617 0 0 2 0
gene 8 2 3617 0.0 0 1 0 1
node 3618 0 0 2 0
gene 8 2 3618 0.0 0 1 0 1
node 3619 0 0 2 0
gene 8 2 3619 0.0 0 1 0 1
node 3620 0 0 2 0
gene 8 2 3620 0.0 0 1 0 1
node 3621 0 0 2 0
gene 8 2 3621 0.0 0 1 0 1
node 3622 0 0 2 0
gene 8 2 3622 0.0 0 1 0 1
node 3623 0 0 2 0
gene 8 2 3623 0.0 0 1 0 1
node 3624 0 0 2 0
gene 8 2 3624 0.0 0 1 0 1
node 3625 0 0 2 0
gene 8 2 3625 0.0 0 1 0 1
node 3626 0 0 2 0
gene 8 2 3626 0.0 0 1 0 1
node 3627 0 0 2 0
gene 8 2 3627 0.0 0 1 0 1
node 3628 0 0 2 0
gene 8 2 3628 0.0 0 1 0 1
node 3629 0 0 2 0
gene 8 2 3629 0.0 0 1 0 1
node 3630 0 0 2 0
gene 8 2 3630 0.0 0 1 0 1
node 3631 0 0 2 0
gene 8 2 3631 0.0 0 1 0 1
node 3632 0 0 2 0
gene 8 2 3632 0.0 0 1 0 1
node 3633 0 0 2 0
gene 8 2 3633 0.0 0 1 0 1
node 3634 0 0 2 0
gene 8 2 3634 0.0 0 1 0 1
node 3635 0 0 2 0
gene 8 2 3635 0.0 0 1 0 1
node 3636 0 0 2 0
gene 8 2 3636 0.0 0 1 0 1
node 3637 0 0 2 0
gene 8 2 3637 0.0 0 1 0 1
node 3638 0 0 2 0
gene 8 2 3638 0.0 0 1 0 1
node 3639 0 0 2 0
gene 8 2 3639 0.0 0 1 0 1
node 3640 0 0 2 0
gene 8 2 3640 0.0 0 1 0 1
node 3641 0 0 2 0
gene 8 2 3641 0.0 0 1 0 1
node 3642 0 0 2 0
gene 8 2 3642 0.0 0 1 0 1
node 3643 0 0 2 0
gene 8 2 3643 0.0 0 1 0 1
node 3644 0 0 2 0
gene 8 2 3644 0.0 0 1 0 1
node 3645 0 0 2 0
gene 8 2 3645 0.0 0 1 0 1
node 3646 0 0 2 0
gene 8 2 3646 0.0 0 1 0 1
node 3647 0 0 2 0
gene 8 2 3647 0.0 0 1 0 1
node 3648 0 0 2 0
gene 8 2 3648 0.0 0 1 0 1
node 3649 0 0 2 0
gene 8 2 3649 0.0 0 1 0 1
node 3650 0 0 2 0
gene 8 2 3650 0.0 0 1 0 1
node 3651 0 0 2 0
gene 8 2 3651 0.0 0 1 0 1
node 3652 0 0 2 0
gene 8 2 3652 0.0 0 1 0 1
node 3653 0 0 2 0
gene 8 2 3653 0.0 0 1 0 1
node 3654 0 0 2 0
gene 8 2 3654 0.0 0 1 0 1
node 3655 0 0 2 0
gene 8 2 3655 0.0 0 1 0 1
node 3656 0 0 2 0
gene 8 2 3656 0.0 0 1 0 1
node 3657 0 0 2 0
gene 8 2 3657 0.0 0 1 0 1
node 3658 0 0 2 0
gene 8 2 3658 0.0 0 1 0 1
node 3659 0 0 2 0
gene 8 2 3659 0.0 0 1 0 1
node 3660 0 0 2 0
gene 8 2 3660 0.0 0 1 0 1
node 3661 0 0 2 0
gene 8 2 3661 0.0 0 1 0 1
node 3662 0 0 2 0
gene 8 2 3662 0.0 0 1 0 1
node 3663 0 0 2 0
gene 8 2 3663 0.0 0 1 0 1
node 3664 0 0 2 0
gene 8 2 3664 0.0 0 1 0 1
node 3665 0 0 2 0
gene 8 2 3665 0.0 0 1 0 1
node 3666 0 0 2 0
gene 8 2 3666 0.0 0 1 0 1
node 3667 0 0 2 0
gene 8 2 3667 0.0 0 1 0 1
node 3668 0 0 2 0
gene 8 2 3668 0.0 0 1 0 1
node 3669 0 0 2 0
gene 8 2 3669 0.0 0 1 0 1
node 3670 0 0 2 0
gene 8 2 3670 0.0 0 1 0 1
node 3671 0 0 2 0
gene 8 2 3671 0.0 0 1 0 1
node 3672 0 0 2 0
gene 8 2 3672 0.0 0 1 0 1
node 3673 0 0 2 0
gene 8 2 3673 0.0 0 1 0 1
node 3674 0 0 2 0
gene 8 2 3674 0.0 0 1 0 1
node 3675 0 0 2 0
gene 8 2 3675 0.0 0 1 0 1
node 3676 0 0 2 0
gene 8 2 3676 0.0 0 1 0 1
node 3677 0 0 2 0
gene 8 2 3677 0.0 0 1 0 1
node 3678 0 0 2 0
gene 8 2 3678 0.0 0 1 0 1
node 3679 0 0 2 0
gene 8 2 3679 0.0 0 1 0 1
node 3680 0 0 2 0
gene 8 2 3680 0.0 0 1 0 1
node 3681 0 0 2 0
gene 8 2 3681 0.0 0 1 0 1
node 3682 0 0 2 0
gene 8 2 3682 0.0 0 1 0 1
node 3683 0 0 2 0
gene 8 2 3683 0.0 0 1 0 1
node 3684 0 0 2 0
gene 8 2 3684 0.0 0 1 0 1
node 3685 0 0 2 0
gene 8 2 3685 0.0 0 1 0 1
node 3686 0 0 2 0
gene 8 2 3686 0.0 0 1 0 1
node 3687 0 0 2 0
gene 8 2 3687 0.0 0 1 0 1
node 3688 0 0 2 0
gene 8 2 3688 0.0 0 1 0 1
node 3689 0 0 2 0
gene 8 2 3689 0.0 0 1 0 1
node 3690 0 0 2 0
gene 8 2 3690 0.0 0 1 0 1
node 3691 0 0 2 0
gene 8 2 3691 0.0 0 1 0 1
node 3692 0 0 2 0
gene 8 2 3692 0.0 0 1 0 1
node 3693 0 0 2 0
gene 8 2 3693 0.0 0 1 0 1
node 3694 0 0 2 0
gene 8 2 3694 0.0 0 1 0 1
node 3695 0 0 2 0
gene 8 2 3695 0.0 0 1 0 1
node 3696 0 0 2 0
gene 8 2 3696 0.0 0 1 0 1
node 3697 0 0 2 0
gene 8 2 3697 0.0 0 1 0 1
node 3698 0 0 2 0
gene 8 2 3698 0.0 0 1 0 1
node 3699 0 0 2 0
gene 8 2 3699 0.0 0 1 0 1
node 3700 0 0 2 0
gene 8 2 3700 0.0 0 1 0 1
node 3701 0 0 2 0
gene 8 2 3701 0.0 0 1 0 1
node 3702 0 0 2 0
gene 8 2 3702 0.0 0 1 0 1
node 3703 0 0 2 0
gene 8 2 3703 0.0 0 1 0 1
node 3704 0 0 2 0
gene 8 2 3704 0.0 0 1 0 1
node 3705 0 0 2 0
gene 8 2 3705 0.0 0 1 0 1
node 3706 0 0 2 0
gene 8 2 3706 0.0 0 1 0 1
node 3707 0 0 2 0
gene 8 2 3707 0.0 0 1 0 1
node 3708 0 0 2 0
gene 8 2 3708 0.0 0 1 0 1
node 3709 0 0 2 0
gene 8 2 3709 0.0 0 1 0 1
node 3710 0 0 2 0
gene 8 2 3710 0.0 0 1 0 1
node 3711 0 0 2 0
gene 8 2 3711 0.0 0 1 0 1
node 3712 0 0 2 0
gene 8 2 3712 0.0 0 1 0 1
node 3713 0 0 2 0
gene 8 2 3713 0.0 0 1 0 1
node 3714 0 0 2 0
gene 8 2 3714 0.0 0 1 0 1
node 3715 0 0 2 0
gene 8 2 3715 0.0 0 1 0 1
node 3716 0 0 2 0
gene 8 2 3716 0.0 0 1 0 1
node 3717 0 0 2 0
gene 8 2 3717 0.0 0 1 0 1
node 3718 0 0 2 0
gene 8 2 3718 0.0 0 1 0 1
node 3719 0 0 2 0
gene 8 2 3719 0.0 0 1 0 1
node 3720 0 0 2 0
gene 8 2 3720 0.0 0 1 0 1
node 3721 0 0 2 0
gene 8 2 3721 0.0 0 1 0 1
node 3722 0 0 2 0
gene 8 2 3722 0.0 0 1 0 1
node 3723 0 0 2 0
gene 8 2 3723 0.0 0 1 0 1
node 3724 0 0 2 0
gene 8 2 3724 0.0 0 1 0 1
node 3725 0 0 2 0
gene 8 2 3725 0.0 0 1 0 1
node 3726 0 0 2 0
gene 8 2 3726 0.0 0 1 0 1
node 3727 0 0 2 0
gene 8 2 3727 0.0 0 1 0 1
node 3728 0 0 2 0
gene 8 2 3728 0.0 0 1 0 1
node 3729 0 0 2 0
gene 8 2 3729 0.0 0 1 0 1
node 3730 0 0 2 0
gene 8 2 3730 0.0 0 1 0 1
node 3731 0 0 2 0
gene 8 2 3731 0.0 0 1 0 1
node 3732 0 0 2 0
gene 8 2 3732 0.0 0 1 0 1
node 3733 0 0 2 0
gene 8 2 3733 0.0 0 1 0 1
node 3734 0 0 2 0
gene 8 2 3734 0.0 0 1 0 1
node 3735 0 0 2 0
gene 8 2 3735 0.0 0 1 0 1
node 3736 0 0 2 0
gene 8 2 3736 0.0 0 1 0 1
node 3737 0 0 2 0
gene 8 2 3737 0.0 0 1 0 1
node 3738 0 0 2 0
gene 8 2 3738 0.0 0 1 0 1
node 3739 0 0 2 0
gene 8 2 3739 0.0 0 1 0 1
node 3740 0 0 2 0
gene 8 2 3740 0.0 0 1 0 1
node 3741 0 0 2 0
gene 8 2 3741 0.0 0 1 0 1
node 3742 0 0 2 0
gene 8 2 3742 0.0 0 1 0 1


node 3743 0 0 2 0
gene 9 2 3743 0.0 0 1 0 1
node 3744 0 0 2 0
gene 9 2 3744 0.0 0 1 0 1
node 3745 0 0 2 0
gene 9 2 3745 0.0 0 1 0 1
node 3746 0 0 2 0
gene 9 2 3746 0.0 0 1 0 1
node 3747 0 0 2 0
gene 9 2 3747 0.0 0 1 0 1
node 3748 0 0 2 0
gene 9 2 3748 0.0 0 1 0 1
node 3749 0 0 2 0
gene 9 2 3749 0.0 0 1 0 1
node 3750 0 0 2 0
gene 9 2 3750 0.0 0 1 0 1
node 3751 0 0 2 0
gene 9 2 3751 0.0 0 1 0 1
node 3752 0 0 2 0
gene 9 2 3752 0.0 0 1 0 1
node 3753 0 0 2 0
gene 9 2 3753 0.0 0 1 0 1
node 3754 0 0 2 0
gene 9 2 3754 0.0 0 1 0 1
node 3755 0 0 2 0
gene 9 2 3755 0.0 0 1 0 1
node 3756 0 0 2 0
gene 9 2 3756 0.0 0 1 0 1
node 3757 0 0 2 0
gene 9 2 3757 0.0 0 1 0 1
node 3758 0 0 2 0
gene 9 2 3758 0.0 0 1 0 1
node 3759 0 0 2 0
gene 9 2 3759 0.0 0 1 0 1
node 3760 0 0 2 0
gene 9 2 3760 0.0 0 1 0 1
node 3761 0 0 2 0
gene 9 2 3761 0.0 0 1 0 1
node 3762 0 0 2 0
gene 9 2 3762 0.0 0 1 0 1
node 3763 0 0 2 0
gene 9 2 3763 0.0 0 1 0 1
node 3764 0 0 2 0
gene 9 2 3764 0.0 0 1 0 1
node 3765 0 0 2 0
gene 9 2 3765 0.0 0 1 0 1
node 3766 0 0 2 0
gene 9 2 3766 0.0 0 1 0 1
node 3767 0 0 2 0
gene 9 2 3767 0.0 0 1 0 1
node 3768 0 0 2 0
gene 9 2 3768 0.0 0 1 0 1
node 3769 0 0 2 0
gene 9 2 3769 0.0 0 1 0 1
node 3770 0 0 2 0
gene 9 2 3770 0.0 0 1 0 1
node 3771 0 0 2 0
gene 9 2 3771 0.0 0 1 0 1
node 3772 0 0 2 0
gene 9 2 3772 0.0 0 1 0 1
node 3773 0 0 2 0
gene 9 2 3773 0.0 0 1 0 1
node 3774 0 0 2 0
gene 9 2 3774 0.0 0 1 0 1
node 3775 0 0 2 0
gene 9 2 3775 0.0 0 1 0 1
node 3776 0 0 2 0
gene 9 2 3776 0.0 0 1 0 1
node 3777 0 0 2 0
gene 9 2 3777 0.0 0 1 0 1
node 3778 0 0 2 0
gene 9 2 3778 0.0 0 1 0 1
node 3779 0 0 2 0
gene 9 2 3779 0.0 0 1 0 1
node 3780 0 0 2 0
gene 9 2 3780 0.0 0 1 0 1
node 3781 0 0 2 0
gene 9 2 3781 0.0 0 1 0 1
node 3782 0 0 2 0
gene 9 2 3782 0.0 0 1 0 1
node 3783 0 0 2 0
gene 9 2 3783 0.0 0 1 0 1
node 3784 0 0 2 0
gene 9 2 3784 0.0 0 1 0 1
node 3785 0 0 2 0
gene 9 2 3785 0.0 0 1 0 1
node 3786 0 0 2 0
gene 9 2 3786 0.0 0 1 0 1
node 3787 0 0 2 0
gene 9 2 3787 0.0 0 1 0 1
node 3788 0 0 2 0
gene 9 2 3788 0.0 0 1 0 1
node 3789 0 0 2 0
gene 9 2 3789 0.0 0 1 0 1
node 3790 0 0 2 0
gene 9 2 3790 0.0 0 1 0 1
node 3791 0 0 2 0
gene 9 2 3791 0.0 0 1 0 1
node 3792 0 0 2 0
gene 9 2 3792 0.0 0 1 0 1


/* Total : 3793 nodes */
/* 9 traits used */

genomeend 1
